node {
  name: "global_step/Initializer/Const"
  op: "Const"
  attr {
    key: "_class"
    value {
      list {
        s: "loc:@global_step"
      }
    }
  }
  attr {
    key: "_output_shapes"
    value {
      list {
        shape {
        }
      }
    }
  }
  attr {
    key: "dtype"
    value {
      type: DT_INT64
    }
  }
  attr {
    key: "value"
    value {
      tensor {
        dtype: DT_INT64
        tensor_shape {
        }
        int64_val: 0
      }
    }
  }
}
node {
  name: "global_step"
  op: "VariableV2"
  attr {
    key: "_class"
    value {
      list {
        s: "loc:@global_step"
      }
    }
  }
  attr {
    key: "_output_shapes"
    value {
      list {
        shape {
        }
      }
    }
  }
  attr {
    key: "container"
    value {
      s: ""
    }
  }
  attr {
    key: "dtype"
    value {
      type: DT_INT64
    }
  }
  attr {
    key: "shape"
    value {
      shape {
      }
    }
  }
  attr {
    key: "shared_name"
    value {
      s: ""
    }
  }
}
node {
  name: "global_step/Assign"
  op: "Assign"
  input: "global_step"
  input: "global_step/Initializer/Const"
  attr {
    key: "T"
    value {
      type: DT_INT64
    }
  }
  attr {
    key: "_class"
    value {
      list {
        s: "loc:@global_step"
      }
    }
  }
  attr {
    key: "_output_shapes"
    value {
      list {
        shape {
        }
      }
    }
  }
  attr {
    key: "use_locking"
    value {
      b: true
    }
  }
  attr {
    key: "validate_shape"
    value {
      b: true
    }
  }
}
node {
  name: "global_step/read"
  op: "Identity"
  input: "global_step"
  attr {
    key: "T"
    value {
      type: DT_INT64
    }
  }
  attr {
    key: "_class"
    value {
      list {
        s: "loc:@global_step"
      }
    }
  }
  attr {
    key: "_output_shapes"
    value {
      list {
        shape {
        }
      }
    }
  }
}
node {
  name: "Const"
  op: "Const"
  attr {
    key: "_output_shapes"
    value {
      list {
        shape {
          dim {
            size: 2508
          }
          dim {
            size: 1
          }
        }
      }
    }
  }
  attr {
    key: "dtype"
    value {
      type: DT_FLOAT
    }
  }
  attr {
    key: "value"
    value {
      tensor {
        dtype: DT_FLOAT
        tensor_shape {
          dim {
            size: 2508
          }
          dim {
            size: 1
          }
        }
        tensor_content: "\000\000\200@\000\000\200@\000\000\000@\000\000@@\000\000\000@\000\000@@\000\000\200@\000\000\200?\000\000\240@\000\000\240@\000\000\200@\000\000@@\000\000\000@\000\000\240@\000\000\240@\000\000\200@\000\000@@\000\000\200@\000\000\000@\000\000@@\000\000\200@\000\000\200@\000\000\000@\000\000@@\000\000\300@\000\000@@\000\000\000@\000\000@@\000\000\000@\000\000\200@\000\000@@\000\000@@\000\000\200@\000\000@@\000\000@@\000\000\200@\000\000@@\000\000\200@\000\000\000@\000\000@@\000\000@@\000\000\000@\000\000@@\000\000@@\000\000@@\000\000\200?\000\000@@\000\000@@\000\000@@\000\000@@\000\000\200@\000\000\240@\000\000\200@\000\000@@\000\000@@\000\000@@\000\000\200@\000\000@@\000\000@@\000\000@@\000\000\000@\000\000\200@\000\000@@\000\000@@\000\000\200@\000\000\240@\000\000@@\000\000\240@\000\000\300@\000\000\000@\000\000@@\000\000@@\000\000\200@\000\000\200@\000\000\240@\000\000@@\000\000\000@\000\000@@\000\000\340@\000\000\000@\000\000\200@\000\000\240@\000\000@@\000\000\000@\000\000\240@\000\000\340@\000\000@@\000\000\240@\000\000\200@\000\000\200?\000\000\200?\000\000\200@\000\000\200@\000\000@@\000\000@@\000\000\000@\000\000@@\000\000@@\000\000\200@\000\000\000@\000\000\200@\000\000@@\000\000\240@\000\000\000@\000\000\000@\000\000\200@\000\000@@\000\000\000@\000\000\240@\000\000\000@\000\000@@\000\000@@\000\000@@\000\000\200@\000\000\240@\000\000@@\000\000@@\000\000@@\000\000@@\000\000@@\000\000\200@\000\000\000@\000\000\200@\000\000\240@\000\000\200?\000\000\200@\000\000\200@\000\000\000@\000\000\000@\000\000@@\000\000\000@\000\000@@\000\000@@\000\000\200@\000\000\240@\000\000@@\000\000@@\000\000\240@\000\000@@\000\000\200@\000\000\000@\000\000\000@\000\000\240@\000\000@@\000\000\200@\000\000\240@\000\000\200@\000\000\000@\000\000\000@\000\000\000@\000\000\200@\000\000\200@\000\000@@\000\000@@\000\000\200?\000\000\240@\000\000@@\000\000@@\000\000@@\000\000\200@\000\000@@\000\000\000@\000\000\200@\000\000@@\000\000\200@\000\000\200?\000\000@@\000\000@@\000\000\240@\000\000@@\000\000@@\000\000\200?\000\000\000@\000\000\240@\000\000@@\000\000@@\000\000@@\000\000\240@\000\000@@\000\000\200@\000\000\200@\000\000@@\000\000\000@\000\000\240@\000\000\000@\000\000\240@\000\000@@\000\000@@\000\000\240@\000\000@@\000\000@@\000\000@@\000\000@@\000\000\300@\000\000@@\000\000\000@\000\000@@\000\000@@\000\000\200@\000\000\240@\000\000@@\000\000@@\000\000\300@\000\000@@\000\000@@\000\000@@\000\000\000@\000\000\000@\000\000\000@\000\000@@\000\000@@\000\000\000@\000\000\000@\000\000\000@\000\000\240@\000\000\200@\000\000\200@\000\000@@\000\000\200@\000\000@@\000\000@@\000\000@@\000\000\200@\000\000\000@\000\000\000@\000\000\200@\000\000\300@\000\000\200@\000\000@@\000\000@@\000\000\000@\000\000\200@\000\000@@\000\000\200@\000\000\240@\000\000\000@\000\000\000@\000\000\000@\000\000\200@\000\000\000@\000\000@@\000\000\240@\000\000\200@\000\000@@\000\000@@\000\000@@\000\000@@\000\000@@\000\000@@\000\000@@\000\000\200@\000\000@@\000\000\240@\000\000\200@\000\000\240@\000\000\000@\000\000@@\000\000@@\000\000\200?\000\000\200@\000\000\200@\000\000\200?\000\000\200@\000\000\200@\000\000@@\000\000@@\000\000\000@\000\000\200@\000\000@@\000\000\000@\000\000\200@\000\000\000@\000\000\000@\000\000@@\000\000\200@\000\000@@\000\000\200@\000\000\000@\000\000\200@\000\000\200@\000\000@@\000\000@@\000\000\240@\000\000\000@\000\000@@\000\000@@\000\000@@\000\000@@\000\000\000@\000\000@@\000\000\200@\000\000\240@\000\000\000@\000\000\000@\000\000\200@\000\000\200@\000\000\240@\000\000\240@\000\000\240@\000\000@@\000\000@@\000\000\200@\000\000\000@\000\000@@\000\000@@\000\000\200@\000\000@@\000\000@@\000\000\240@\000\000\200@\000\000\200?\000\000\000@\000\000\200?\000\000\200@\000\000@@\000\000\000@\000\000@@\000\000@@\000\000\000@\000\000\200@\000\000\200@\000\000\200@\000\000\240@\000\000\240@\000\000\000@\000\000\000@\000\000\200@\000\000@@\000\000\200@\000\000@@\000\000@@\000\000\200@\000\000\000@\000\000\240@\000\000@@\000\000@@\000\000@@\000\000\000@\000\000\240@\000\000\200@\000\000\200@\000\000@@\000\000\000@\000\000\200@\000\000@@\000\000\240@\000\000\000@\000\000\000@\000\000\200@\000\000\240@\000\000\200@\000\000\200@\000\000@@\000\000@@\000\000\200@\000\000\240@\000\000@@\000\000@@\000\000@@\000\000\000@\000\000\200@\000\000\240@\000\000@@\000\000@@\000\000\200@\000\000\000@\000\000@@\000\000@@\000\000\340@\000\000@@\000\000\240@\000\000\300@\000\000@@\000\000\000A\000\000\200@\000\000@@\000\000\240@\000\000\200@\000\000@@\000\000@@\000\000\200@\000\000\200?\000\000@@\000\000@@\000\000\200@\000\000\200@\000\000@@\000\000@@\000\000@@\000\000\200@\000\000\000@\000\000\200@\000\000@@\000\000\200@\000\000\200@\000\000\200@\000\000\200@\000\000\200@\000\000@@\000\000\200@\000\000@@\000\000\000@\000\000\200@\000\000\200@\000\000\240@\000\000@@\000\000@@\000\000@@\000\000@@\000\000\200@\000\000@@\000\000\000@\000\000\200@\000\000\240@\000\000@@\000\000\200@\000\000@@\000\000@@\000\000@@\000\000@@\000\000@@\000\000\000@\000\000@@\000\000\200@\000\000\200@\000\000\000@\000\000@@\000\000@@\000\000@@\000\000\000A\000\000@@\000\000@@\000\000\200@\000\000\000@\000\000\000@\000\000@@\000\000@@\000\000@@\000\000@@\000\000@@\000\000@@\000\000@@\000\000@@\000\000@@\000\000@@\000\000\200@\000\000@@\000\000\000@\000\000\200@\000\000\200@\000\000\200@\000\000@@\000\000\000@\000\000\000@\000\000@@\000\000\000@\000\000\240@\000\000\200@\000\000@@\000\000\240@\000\000\200@\000\000@@\000\000\200?\000\000\000@\000\000\200@\000\000@@\000\000\200@\000\000@@\000\000\200@\000\000@@\000\000@@\000\000\000@\000\000\240@\000\000\200@\000\000@@\000\000\200@\000\000@@\000\000@@\000\000\200@\000\000@@\000\000\240@\000\000@@\000\000\300@\000\000\200@\000\000@@\000\000@@\000\000\200@\000\000\200@\000\000\000@\000\000@@\000\000\240@\000\000@@\000\000\200@\000\000\200@\000\000\200@\000\000\000@\000\000@@\000\000\000@\000\000@@\000\000\200@\000\000@@\000\000\200@\000\000\200@\000\000\200@\000\000\000@\000\000\000@\000\000\240@\000\000\200@\000\000\300@\000\000\200@\000\000@@\000\000\240@\000\000\000@\000\000\200@\000\000@@\000\000@@\000\000@@\000\000\240@\000\000\200@\000\000@@\000\000\200@\000\000\000@\000\000\000@\000\000\200@\000\000\200@\000\000\000@\000\000@@\000\000\000@\000\000\000@\000\000\200@\000\000\200@\000\000@@\000\000\200@\000\000\200@\000\000@@\000\000\000@\000\000\200@\000\000\200@\000\000\200?\000\000\240@\000\000@@\000\000@@\000\000\200@\000\000@@\000\000\200@\000\000\200@\000\000@@\000\000@@\000\000\240@\000\000\200@\000\000@@\000\000\200@\000\000@@\000\000@@\000\000@@\000\000@@\000\000@@\000\000\200@\000\000@@\000\000\200@\000\000\000@\000\000@@\000\000@@\000\000\000@\000\000\200@\000\000\000@\000\000\000@\000\000\300@\000\000@@\000\000\200@\000\000\200@\000\000\000@\000\000@@\000\000\200?\000\000@@\000\000@@\000\000\300@\000\000\000@\000\000\200@\000\000@@\000\000@@\000\000@@\000\000@@\000\000\000@\000\000\240@\000\000\240@\000\000\200@\000\000@@\000\000@@\000\000@@\000\000@@\000\000@@\000\000\000@\000\000@@\000\000\240@\000\000\000@\000\000@@\000\000@@\000\000\000@\000\000\200?\000\000\000@\000\000@@\000\000\200@\000\000\000@\000\000@@\000\000\200@\000\000\200@\000\000\000@\000\000@@\000\000\200@\000\000\200@\000\000\200@\000\000@@\000\000\000@\000\000\200@\000\000\240@\000\000@@\000\000\200@\000\000@@\000\000@@\000\000@@\000\000@@\000\000@@\000\000\000@\000\000\200@\000\000@@\000\000\200@\000\000\200?\000\000\000@\000\000\200@\000\000\240@\000\000\200@\000\000\200@\000\000\200@\000\000@@\000\000\200@\000\000\240@\000\000\200@\000\000\200@\000\000@@\000\000\200@\000\000\240@\000\000@@\000\000\000@\000\000@@\000\000\200?\000\000\240@\000\000@@\000\000@@\000\000\200@\000\000\200@\000\000@@\000\000@@\000\000@@\000\000@@\000\000\200@\000\000\240@\000\000@@\000\000\000@\000\000@@\000\000\000@\000\000\300@\000\000@@\000\000\200@\000\000\200@\000\000@@\000\000@@\000\000@@\000\000\000@\000\000\200?\000\000\000@\000\000\200@\000\000\200@\000\000\200@\000\000\240@\000\000\240@\000\000@@\000\000@@\000\000@@\000\000\200@\000\000\200@\000\000@@\000\000@@\000\000@@\000\000\200@\000\000\200@\000\000\240@\000\000\000@\000\000@@\000\000\240@\000\000\240@\000\000\200@\000\000@@\000\000@@\000\000@@\000\000\000@\000\000\340@\000\000@@\000\000\200@\000\000@@\000\000\000@\000\000@@\000\000\200@\000\000\000@\000\000\200@\000\000\240@\000\000\200@\000\000@@\000\000@@\000\000@@\000\000\000@\000\000\200?\000\000@@\000\000\000@\000\000\200@\000\000@@\000\000\000@\000\000\200@\000\000@@\000\000\200@\000\000@@\000\000\200@\000\000\200@\000\000\000@\000\000\000@\000\000\300@\000\000\200@\000\000@@\000\000\000@\000\000@@\000\000\200@\000\000\200@\000\000\200@\000\000\000@\000\000@@\000\000@@\000\000\240@\000\000\200?\000\000\000@\000\000@@\000\000\200@\000\000\200@\000\000@@\000\000@@\000\000\000@\000\000\200@\000\000\200@\000\000@@\000\000@@\000\000\000@\000\000\200@\000\000@@\000\000\200@\000\000\000@\000\000\000@\000\000@@\000\000\000@\000\000@@\000\000\200@\000\000@@\000\000\000@\000\000@@\000\000\240@\000\000\200@\000\000\000@\000\000@@\000\000@@\000\000\000@\000\000\200@\000\000@@\000\000@@\000\000@@\000\000@@\000\000\200@\000\000\340@\000\000\200@\000\000\200@\000\000\200@\000\000\200?\000\000\000@\000\000@@\000\000\240@\000\000@@\000\000@@\000\000@@\000\000\240@\000\000\000@\000\000\000@\000\000\200@\000\000\200@\000\000\000@\000\000@@\000\000@@\000\000@@\000\000@@\000\000\000@\000\000\240@\000\000\200@\000\000\200?\000\000\200@\000\000\200@\000\000\200@\000\000@@\000\000@@\000\000\200?\000\000\200@\000\000@@\000\000\200@\000\000\300@\000\000\200?\000\000\000@\000\000@@\000\000\200?\000\000\200@\000\000@@\000\000@@\000\000\200@\000\000@@\000\000\000@\000\000\200@\000\000\200@\000\000@@\000\000\200?\000\000@@\000\000\240@\000\000@@\000\000\000@\000\000\200@\000\000@@\000\000@@\000\000@@\000\000\240@\000\000\200@\000\000\200?\000\000\000@\000\000\200@\000\000@@\000\000\000@\000\000@@\000\000\300@\000\000@@\000\000@@\000\000@@\000\000\240@\000\000\200@\000\000\000@\000\000@@\000\000\000@\000\000@@\000\000@@\000\000@@\000\000\200@\000\000@@\000\000@@\000\000@@\000\000\000@\000\000\240@\000\000\000@\000\000@@\000\000\200?\000\000@@\000\000@@\000\000@@\000\000@@\000\000\240@\000\000\240@\000\000\240@\000\000\200@\000\000\300@\000\000\240@\000\000@@\000\000\000@\000\000@@\000\000\000@\000\000\200@\000\000\200@\000\000@@\000\000\200@\000\000\200@\000\000@@\000\000\240@\000\000\000@\000\000@@\000\000\240@\000\000\000@\000\000\200@\000\000@@\000\000@@\000\000\200@\000\000\000@\000\000\000@\000\000@@\000\000\200?\000\000\000@\000\000\240@\000\000\200@\000\000@@\000\000\000@\000\000\200@\000\000\240@\000\000\240@\000\000\200?\000\000\000@\000\000\240@\000\000@@\000\000\240@\000\000@@\000\000\200@\000\000\000@\000\000\240@\000\000\000@\000\000@@\000\000@@\000\000\240@\000\000\300@\000\000\200@\000\000\300@\000\000\200@\000\000\000@\000\000\200@\000\000\200@\000\000\240@\000\000@@\000\000@@\000\000@@\000\000@@\000\000\000@\000\000\200@\000\000@@\000\000\200@\000\000\240@\000\000\200@\000\000\200@\000\000@@\000\000\240@\000\000\000@\000\000\200@\000\000@@\000\000@@\000\000\200@\000\000@@\000\000@@\000\000@@\000\000\200@\000\000\200@\000\000@@\000\000@@\000\000\000@\000\000@@\000\000\200@\000\000\000@\000\000@@\000\000@@\000\000@@\000\000\200?\000\000\000@\000\000\200@\000\000\200@\000\000\200@\000\000\000@\000\000@@\000\000\000@\000\000@@\000\000@@\000\000@@\000\000\200@\000\000\000@\000\000\000@\000\000\200?\000\000\200@\000\000\240@\000\000\200@\000\000\240@\000\000\240@\000\000\000@\000\000\000@\000\000@@\000\000\200@\000\000\000@\000\000\000@\000\000\240@\000\000\000@\000\000\200@\000\000@@\000\000\000@\000\000\200@\000\000@@\000\000\000@\000\000@@\000\000@@\000\000@@\000\000\000@\000\000@@\000\000\240@\000\000\000@\000\000\200@\000\000@@\000\000@@\000\000\200@\000\000\240@\000\000@@\000\000@@\000\000@@\000\000@@\000\000\000@\000\000\340@\000\000\200@\000\000@@\000\000\300@\000\000\240@\000\000@@\000\000\200?\000\000\200@\000\000\200@\000\000@@\000\000@@\000\000@@\000\000\200@\000\000\200@\000\000\000@\000\000\200@\000\000\240@\000\000\200@\000\000@@\000\000\200@\000\000\200@\000\000\000@\000\000\200?\000\000\200@\000\000@@\000\000\200@\000\000@@\000\000@@\000\000@@\000\000\200@\000\000\240@\000\000\200@\000\000@@\000\000\200?\000\000\200@\000\000@@\000\000@@\000\000@@\000\000\300@\000\000@@\000\000\200@\000\000\200?\000\000@@\000\000@@\000\000\200@\000\000@@\000\000@@\000\000\240@\000\000\240@\000\000@@\000\000@@\000\000\200@\000\000@@\000\000\000@\000\000\200@\000\000\240@\000\000\000@\000\000@@\000\000@@\000\000@@\000\000@@\000\000\200@\000\000\000@\000\000@@\000\000\000@\000\000\200@\000\000\000@\000\000@@\000\000\000@\000\000\200@\000\000@@\000\000@@\000\000\200@\000\000\000@\000\000\000@\000\000\000@\000\000\000@\000\000\200@\000\000\240@\000\000@@\000\000@@\000\000@@\000\000@@\000\000\200@\000\000\240@\000\000\000@\000\000\000@\000\000\000@\000\000@@\000\000@@\000\000\200@\000\000\000@\000\000\000@\000\000@@\000\000\200@\000\000@@\000\000\200@\000\000\000@\000\000@@\000\000@@\000\000\200@\000\000\000@\000\000@@\000\000\000@\000\000\200@\000\000@@\000\000@@\000\000\300@\000\000@@\000\000@@\000\000\200@\000\000@@\000\000\200@\000\000\240@\000\000@@\000\000@@\000\000@@\000\000\200@\000\000\200@\000\000@@\000\000\240@\000\000\000@\000\000\000@\000\000\300@\000\000\200@\000\000\000@\000\000@@\000\000\200@\000\000\200@\000\000\000@\000\000@@\000\000@@\000\000\000@\000\000\240@\000\000@@\000\000\200?\000\000\000@\000\000\200@\000\000\240@\000\000@@\000\000\000@\000\000\200@\000\000\200@\000\000@@\000\000\200?\000\000@@\000\000@@\000\000@@\000\000\240@\000\000\200@\000\000@@\000\000\200@\000\000@@\000\000\200@\000\000@@\000\000\000@\000\000@@\000\000\200@\000\000\300@\000\000\200@\000\000@@\000\000\000@\000\000\000@\000\000\200@\000\000\300@\000\000@@\000\000@@\000\000\240@\000\000\200@\000\000\000@\000\000@@\000\000\200?\000\000\000@\000\000@@\000\000\240@\000\000@@\000\000\000@\000\000@@\000\000\200?\000\000@@\000\000\200@\000\000\200@\000\000\200@\000\000\200@\000\000@@\000\000\200@\000\000\000@\000\000\000@\000\000\200@\000\000\000@\000\000@@\000\000\200@\000\000@@\000\000\240@\000\000@@\000\000\200@\000\000\200@\000\000@@\000\000\000@\000\000@@\000\000\000@\000\000@@\000\000\000@\000\000@@\000\000@@\000\000\000@\000\000\200@\000\000\000@\000\000\000@\000\000\200@\000\000\000@\000\000@@\000\000@@\000\000\240@\000\000@@\000\000\000@\000\000\200@\000\000\000@\000\000@@\000\000\200@\000\000\200@\000\000@@\000\000\200@\000\000\000@\000\000\200@\000\000@@\000\000\300@\000\000@@\000\000\000@\000\000\200?\000\000\000@\000\000\200@\000\000\240@\000\000\000@\000\000@@\000\000\000@\000\000\200@\000\000@@\000\000\200@\000\000\200@\000\000@@\000\000\000@\000\000@@\000\000\200@\000\000\200@\000\000\240@\000\000\000@\000\000\340@\000\000\000@\000\000\000@\000\000@@\000\000\200?\000\000\200@\000\000@@\000\000\240@\000\000@@\000\000\240@\000\000@@\000\000\200?\000\000@@\000\000\200@\000\000\300@\000\000\300@\000\000\200@\000\000\200@\000\000\200@\000\000\200@\000\000\200@\000\000@@\000\000\200?\000\000\000@\000\000@@\000\000@@\000\000@@\000\000\200@\000\000\000@\000\000@@\000\000@@\000\000\240@\000\000@@\000\000\240@\000\000@@\000\000\200@\000\000\200@\000\000@@\000\000\240@\000\000\200@\000\000\200?\000\000@@\000\000\000@\000\000\000@\000\000\240@\000\000\200@\000\000@@\000\000@@\000\000\000@\000\000\200@\000\000\200@\000\000\200?\000\000\200@\000\000\200@\000\000@@\000\000@@\000\000\200@\000\000\000@\000\000\000@\000\000\200@\000\000\200@\000\000@@\000\000@@\000\000\240@\000\000\000@\000\000\200@\000\000\200?\000\000\200?\000\000@@\000\000\200@\000\000@@\000\000\000@\000\000\000@\000\000\240@\000\000\200@\000\000\000@\000\000\200@\000\000@@\000\000\200?\000\000@@\000\000\200@\000\000\200@\000\000@@\000\000\000@\000\000@@\000\000\000@\000\000\200@\000\000@@\000\000\000@\000\000\240@\000\000\200@\000\000\000@\000\000@@\000\000\200@\000\000\000@\000\000\000@\000\000\200@\000\000@@\000\000@@\000\000@@\000\000\200@\000\000@@\000\000@@\000\000\200@\000\000@@\000\000@@\000\000\200?\000\000@@\000\000\000@\000\000\200@\000\000@@\000\000@@\000\000\000@\000\000@@\000\000\200@\000\000@@\000\000\000@\000\000@@\000\000\000@\000\000@@\000\000\200@\000\000\200@\000\000@@\000\000\240@\000\000\200@\000\000@@\000\000\200@\000\000\300@\000\000@@\000\000\000@\000\000\200@\000\000@@\000\000@@\000\000\200@\000\000\200@\000\000\200@\000\000\200@\000\000\200@\000\000@@\000\000\200@\000\000@@\000\000\200@\000\000\200?\000\000\200@\000\000\200@\000\000\240@\000\000@@\000\000\200@\000\000@@\000\000\000@\000\000\200@\000\000\200@\000\000\000@\000\000\200@\000\000\000@\000\000@@\000\000\200@\000\000\000@\000\000\200@\000\000\000@\000\000\200@\000\000\000@\000\000\200@\000\000@@\000\000@@\000\000\200?\000\000\200@\000\000\000@\000\000\240@\000\000\240@\000\000\000@\000\000\200@\000\000\300@\000\000@@\000\000@@\000\000\000@\000\000\240@\000\000\300@\000\000\200@\000\000@@\000\000\240@\000\000\000@\000\000@@\000\000@@\000\000\000@\000\000@@\000\000\200@\000\000\240@\000\000@@\000\000@@\000\000\200@\000\000@@\000\000@@\000\000\240@\000\000\200@\000\000@@\000\000\200@\000\000\000@\000\000\200@\000\000\000@\000\000\200@\000\000\200?\000\000\200@\000\000\200@\000\000\200@\000\000\240@\000\000\200@\000\000@@\000\000\240@\000\000\000@\000\000@@\000\000@@\000\000\240@\000\000\200@\000\000@@\000\000\200@\000\000@@\000\000@@\000\000@@\000\000@@\000\000@@\000\000@@\000\000\000@\000\000\240@\000\000\200@\000\000\200@\000\000\200@\000\000\240@\000\000@@\000\000\300@\000\000@@\000\000\300@\000\000@@\000\000\200@\000\000@@\000\000\240@\000\000\200@\000\000\200@\000\000@@\000\000\200@\000\000@@\000\000\200@\000\000\200@\000\000@@\000\000\000@\000\000@@\000\000\200@\000\000\300@\000\000\200@\000\000@@\000\000\000@\000\000\200@\000\000\200@\000\000@@\000\000@@\000\000\200@\000\000\240@\000\000\200@\000\000\000@\000\000\200@\000\000@@\000\000\000@\000\000\000@\000\000\000@\000\000\200@\000\000\240@\000\000@@\000\000@@\000\000\300@\000\000@@\000\000@@\000\000\000@\000\000@@\000\000@@\000\000\200@\000\000\200@\000\000@@\000\000\240@\000\000@@\000\000@@\000\000\240@\000\000@@\000\000@@\000\000@@\000\000@@\000\000@@\000\000@@\000\000@@\000\000\000@\000\000@@\000\000\000@\000\000\200@\000\000\200@\000\000\200@\000\000\200@\000\000\200@\000\000\240@\000\000\000@\000\000@@\000\000@@\000\000\200?\000\000@@\000\000\240@\000\000\200@\000\000@@\000\000@@\000\000@@\000\000@@\000\000\000@\000\000@@\000\000@@\000\000@@\000\000@@\000\000\200@\000\000\240@\000\000\200@\000\000\000@\000\000@@\000\000\240@\000\000\000@\000\000@@\000\000\000@\000\000\000@\000\000@@\000\000\240@\000\000\200?\000\000\200@\000\000@@\000\000@@\000\000\000@\000\000@@\000\000\200@\000\000@@\000\000@@\000\000\200@\000\000@@\000\000\240@\000\000\200@\000\000@@\000\000@@\000\000\240@\000\000\200@\000\000@@\000\000@@\000\000\200?\000\000\300@\000\000@@\000\000\200@\000\000@@\000\000@@\000\000@@\000\000\200@\000\000@@\000\000\000@\000\000\000@\000\000\200@\000\000\000@\000\000\000@\000\000@@\000\000@@\000\000\200@\000\000@@\000\000\240@\000\000\000@\000\000\200@\000\000\200@\000\000\000@\000\000@@\000\000@@\000\000@@\000\000@@\000\000\200@\000\000@@\000\000\200@\000\000\200?\000\000@@\000\000\200@\000\000\200@\000\000\200?\000\000@@\000\000@@\000\000\200@\000\000\000@\000\000\200@\000\000\000@\000\000@@\000\000\200@\000\000\240@\000\000\200@\000\000\000@\000\000\000@\000\000\200@\000\000@@\000\000\200@\000\000\200@\000\000\200?\000\000\200@\000\000@@\000\000\240@\000\000@@\000\000@@\000\000\200@\000\000\000@\000\000\240@\000\000\200@\000\000@@\000\000\200@\000\000\200@\000\000\200@\000\000\200@\000\000\200@\000\000\240@\000\000\200@\000\000@@\000\000\000@\000\000\200@\000\000\200@\000\000\000@\000\000\000@\000\000\200@\000\000@@\000\000\200@\000\000\000@\000\000\200@\000\000@@\000\000@@\000\000\200@\000\000@@\000\000@@\000\000\200?\000\000\240@\000\000\200@\000\000@@\000\000\200@\000\000@@\000\000@@\000\000\000@\000\000@@\000\000\000@\000\000@@\000\000@@\000\000\200@\000\000\000@\000\000@@\000\000\200@\000\000@@\000\000@@\000\000@@\000\000\200@\000\000@@\000\000\000@\000\000\240@\000\000@@\000\000\200@\000\000\000@\000\000@@\000\000@@\000\000\000@\000\000\200@\000\000@@\000\000\200@\000\000\200@\000\000\240@\000\000\200@\000\000\000@\000\000\200@\000\000\000@\000\000@@\000\000\200@\000\000\200@\000\000\200@\000\000\000@\000\000@@\000\000\300@\000\000\200@\000\000\200?\000\000@@\000\000\240@\000\000\240@\000\000@@\000\000\340@\000\000\200@\000\000@@\000\000@@\000\000\200@\000\000@@\000\000\240@\000\000@@\000\000\200@\000\000\000@\000\000\200@\000\000\200@\000\000\000@\000\000@@\000\000\240@\000\000@@\000\000\240@\000\000@@\000\000\240@\000\000\240@\000\000\240@\000\000\200@\000\000\200@\000\000@@\000\000@@\000\000@@\000\000\000@\000\000\000@\000\000\240@\000\000@@\000\000\200@\000\000\240@\000\000\200@\000\000@@\000\000\200@\000\000\200@\000\000@@\000\000\200?\000\000\200@\000\000\200@\000\000\200@\000\000\200@\000\000\200@\000\000\240@\000\000\200@\000\000\000@\000\000\200@\000\000@@\000\000\240@\000\000@@\000\000@@\000\000@@\000\000@@\000\000@@\000\000\000@\000\000@@\000\000\200@\000\000\200?\000\000\200@\000\000@@\000\000@@\000\000@@\000\000\000@\000\000\200@\000\000\000@\000\000\000@\000\000@@\000\000\200@\000\000\240@\000\000@@\000\000\200@\000\000@@\000\000\200?\000\000\200@\000\000@@\000\000\200@\000\000\200@\000\000\200@\000\000\200@\000\000\240@\000\000\000@\000\000@@\000\000@@\000\000@@\000\000\240@\000\000@@\000\000@@\000\000@@\000\000@@\000\000\200@\000\000@@\000\000@@\000\000\240@\000\000\200@\000\000\200?\000\000@@\000\000@@\000\000@@\000\000@@\000\000\000@\000\000\240@\000\000\200?\000\000@@\000\000@@\000\000\200@\000\000\240@\000\000\200?\000\000\200@\000\000\200@\000\000@@\000\000@@\000\000@@\000\000@@\000\000\000@\000\000@@\000\000\300@\000\000\240@\000\000@@\000\000\200@\000\000\200@\000\000\000@\000\000\000@\000\000\200@\000\000\000@\000\000@@\000\000\200@\000\000\200@\000\000\200@\000\000\200@\000\000\000@\000\000@@\000\000@@\000\000\200?\000\000@@\000\000\200@\000\000\200?\000\000@@\000\000\000@\000\000@@\000\000@@\000\000\000@\000\000\000@\000\000\200@\000\000@@\000\000\200@\000\000\200@\000\000\200@\000\000@@\000\000\200?\000\000\200@\000\000@@\000\000\200@\000\000@@\000\000\000@\000\000@@\000\000\200?\000\000\000@\000\000\240@\000\000\000@\000\000@@\000\000\300@\000\000\200@\000\000\200@\000\000@@\000\000\240@\000\000\200@\000\000\200@\000\000\000@\000\000@@\000\000\000@\000\000\200@\000\000@@\000\000\000@\000\000\240@\000\000@@\000\000@@\000\000\200@\000\000@@\000\000\240@\000\000@@\000\000\240@\000\000\200@\000\000\200@\000\000@@\000\000@@\000\000\200@\000\000\200@\000\000@@\000\000@@\000\000@@\000\000\200@\000\000\200@\000\000@@\000\000\200?\000\000\000@\000\000\240@\000\000\200@\000\000\200@\000\000@@\000\000\000@\000\000\200@\000\000\200?\000\000@@\000\000\000@\000\000\000@\000\000\000@\000\000\200@\000\000\000@\000\000\200@\000\000\200@\000\000\000@\000\000\200@\000\000\300@\000\000\200?\000\000\240@\000\000\000@\000\000\200@\000\000\200@\000\000\340@\000\000\000@\000\000\000@\000\000\200@\000\000\200?\000\000\300@\000\000@@\000\000\000@\000\000\200@\000\000\200@\000\000\200?\000\000\200@\000\000@@\000\000\200@\000\000\240@\000\000\200@\000\000\000@\000\000@@\000\000\200?\000\000@@\000\000\000@\000\000@@\000\000\240@\000\000\200@\000\000\200?\000\000\000@\000\000@@\000\000\200@\000\000\200@\000\000\200@\000\000\240@\000\000@@\000\000\200@\000\000\200@\000\000\000@\000\000@@\000\000@@\000\000\200@\000\000@@\000\000@@\000\000@@\000\000@@\000\000\200@\000\000\240@\000\000\240@\000\000@@\000\000@@\000\000@@\000\000@@\000\000@@\000\000@@\000\000\200@\000\000@@\000\000@@\000\000@@\000\000\200@\000\000@@\000\000\000@\000\000\000@\000\000\200@\000\000\200@\000\000\000@\000\000@@\000\000\200@\000\000\240@\000\000@@\000\000\000@\000\000\000@\000\000\200?\000\000\200@\000\000@@\000\000\200@\000\000\200@\000\000\200@\000\000\200@\000\000@@\000\000@@\000\000\240@\000\000\200@\000\000@@\000\000@@\000\000\300@\000\000@@\000\000\200@\000\000\000@\000\000\000@\000\000@@\000\000\300@\000\000\000@\000\000@@\000\000@@\000\000@@\000\000@@\000\000@@\000\000\200@\000\000@@\000\000\000@\000\000\200@\000\000\200?\000\000\200@\000\000\200@\000\000@@\000\000\200@\000\000\200@\000\000@@\000\000\200@\000\000\200@\000\000@@\000\000\300@\000\000\200@\000\000@@\000\000@@\000\000@@\000\000@@\000\000@@\000\000@@\000\000\200@\000\000\000@\000\000\200@\000\000\200@\000\000\200@\000\000\200@\000\000@@\000\000\200@\000\000@@\000\000\200@\000\000\200@\000\000@@\000\000\000@\000\000\000@\000\000\300@\000\000\200@\000\000\200@\000\000\000@\000\000\000@\000\000\000@\000\000\200?\000\000\000@\000\000\000@\000\000\000@\000\000\240@\000\000\200@\000\000\000@\000\000\300@\000\000\200@\000\000\200@\000\000\200@\000\000\200@\000\000@@\000\000@@\000\000@@\000\000@@\000\000@@\000\000\200@\000\000\200@\000\000@@\000\000\200@\000\000\200@\000\000\000@\000\000@@\000\000\000@\000\000\300@\000\000@@\000\000\200@\000\000@@\000\000\200@\000\000\000@\000\000\200@\000\000\200@\000\000\200@\000\000@@\000\000\000@\000\000\000@\000\000\200@\000\000\200@\000\000\240@\000\000\000@\000\000\200@\000\000\200@\000\000\000@\000\000@@\000\000@@\000\000@@\000\000\000@\000\000@@\000\000\000@\000\000@@\000\000@@\000\000\200@\000\000@@\000\000@@\000\000\000@\000\000\200@\000\000\000@\000\000\000@\000\000\000@\000\000\300@\000\000\240@\000\000@@\000\000@@\000\000\000@\000\000\240@\000\000\300@\000\000\240@\000\000@@\000\000\000@\000\000\240@\000\000\000@\000\000\000@\000\000\200@\000\000\000@\000\000@@\000\000\200@\000\000\000@\000\000\000@\000\000\200@\000\000\300@\000\000\000@\000\000\200@\000\000@@\000\000@@\000\000\200@\000\000@@\000\000@@\000\000\200@\000\000@@\000\000\000@\000\000\000@\000\000\000@\000\000\200?\000\000\240@\000\000\240@\000\000\240@\000\000\200@\000\000@@\000\000\200@\000\000\240@\000\000\000@\000\000\200@\000\000@@\000\000\200@\000\000@@\000\000@@\000\000\200@\000\000\200@\000\000\200?\000\000\200@\000\000\200@\000\000@@\000\000@@\000\000@@\000\000@@\000\000@@\000\000@@\000\000@@\000\000@@\000\000\000@\000\000\000@\000\000\240@\000\000\200@\000\000\200@\000\000\200@\000\000\340@\000\000\240@\000\000\200?\000\000@@\000\000\000@\000\000\240@\000\000@@\000\000\240@\000\000@@\000\000\200@\000\000\200@\000\000\200@\000\000@@\000\000\240@\000\000\240@\000\000@@\000\000\240@\000\000\200@\000\000\000@\000\000@@\000\000\200@\000\000@@\000\000\000@\000\000@@\000\000@@\000\000\240@\000\000@@\000\000\200@\000\000@@\000\000@@\000\000\240@\000\000\200@\000\000\200@\000\000\240@\000\000\000@\000\000\000@\000\000\000@\000\000\200@\000\000\000@\000\000@@\000\000\200@\000\000@@\000\000@@\000\000\000@\000\000@@\000\000\300@\000\000@@\000\000@@\000\000@@\000\000\000@\000\000\000@\000\000@@\000\000@@\000\000\200@\000\000\200@\000\000\200@\000\000@@\000\000@@\000\000\200@\000\000\200?\000\000\200?\000\000\240@\000\000\000@\000\000@@\000\000\240@\000\000@@\000\000\240@\000\000\200@\000\000@@\000\000@@\000\000\000@\000\000@@\000\000\200@\000\000\240@\000\000@@\000\000@@\000\000@@\000\000\240@\000\000@@\000\000@@\000\000\200@\000\000\000@\000\000\300@\000\000\240@\000\000@@\000\000\200?\000\000@@\000\000\000@\000\000@@\000\000\000@\000\000\000@\000\000\200@\000\000\000@\000\000\240@\000\000@@\000\000\200@\000\000\000@\000\000@@\000\000\200?\000\000@@\000\000@@\000\000\200@\000\000\200@\000\000@@\000\000@@\000\000@@\000\000\200@\000\000@@\000\000\200@\000\000@@\000\000\000@\000\000\340@\000\000@@\000\000\200@\000\000\200@\000\000\200@\000\000\000@\000\000\200@\000\000\200@\000\000\200@\000\000@@\000\000\240@\000\000\200@\000\000@@\000\000@@\000\000\240@\000\000\000@\000\000\200@\000\000@@\000\000\000@\000\000\200@\000\000@@\000\000@@\000\000\240@\000\000@@\000\000@@\000\000@@\000\000@@\000\000\000@\000\000@@\000\000\000@\000\000\200@\000\000@@\000\000@@\000\000\240@\000\000\240@\000\000\200@\000\000\240@\000\000\000@\000\000\000@\000\000\200@\000\000@@\000\000@@\000\000\200@\000\000@@\000\000\240@\000\000\200?\000\000\240@\000\000@@\000\000\300@\000\000\200@\000\000\240@\000\000\200@\000\000@@\000\000@@\000\000\000@\000\000\200@\000\000\200@\000\000@@\000\000\000@\000\000@@\000\000\200@\000\000\000@\000\000@@\000\000\200@\000\000\200@\000\000@@\000\000\240@\000\000\200@\000\000\000@\000\000@@\000\000\000@\000\000@@\000\000@@\000\000\200?\000\000\200@\000\000@@\000\000\200?\000\000@@\000\000\200@\000\000\300@\000\000\200@\000\000\000@\000\000\240@\000\000\000@\000\000\200@\000\000@@\000\000@@\000\000\200@\000\000@@\000\000\200@\000\000@@\000\000\000@\000\000\200@\000\000@@\000\000\240@\000\000\200@\000\000@@\000\000\200@\000\000\000@\000\000\200@\000\000\000@\000\000\200@\000\000\000@\000\000\200@\000\000@@\000\000\200@\000\000\200@\000\000\240@\000\000\000A\000\000\000@\000\000\200@\000\000\300@\000\000\000@\000\000\240@\000\000@@\000\000@@\000\000\200@\000\000\240@\000\000\000@\000\000\000@\000\000\200@\000\000\240@\000\000@@\000\000@@\000\000@@\000\000\200?\000\000\200@\000\000\200@\000\000\200@\000\000\000@\000\000@@\000\000\200@\000\000\000@\000\000\000@\000\000\240@\000\000\200@\000\000\200@\000\000@@\000\000\340@\000\000\300@\000\000@@\000\000@@\000\000@@\000\000\240@\000\000\000@\000\000\000@\000\000@@\000\000\000@\000\000\000@\000\000\000@\000\000@@\000\000\000@\000\000@@\000\000\200@\000\000@@\000\000@@\000\000@@\000\000@@\000\000\200@\000\000\000@\000\000@@\000\000\200@\000\000\200@\000\000\200@\000\000@@\000\000\000@\000\000\200@\000\000\200@\000\000@@\000\000\000@\000\000\000@\000\000\240@\000\000@@\000\000\000@\000\000\240@\000\000\300@\000\000@@\000\000@@\000\000\000@\000\000\200@\000\000@@\000\000@@\000\000@@\000\000\000@\000\000@@"
      }
    }
  }
}
node {
  name: "Const_1"
  op: "Const"
  attr {
    key: "_output_shapes"
    value {
      list {
        shape {
          dim {
            size: 2508
          }
          dim {
            size: 1
          }
        }
      }
    }
  }
  attr {
    key: "dtype"
    value {
      type: DT_FLOAT
    }
  }
  attr {
    key: "value"
    value {
      tensor {
        dtype: DT_FLOAT
        tensor_shape {
          dim {
            size: 2508
          }
          dim {
            size: 1
          }
        }
        tensor_content: "\000\000\000@\000\000\200?\000\000\200?\000\000\200?\000\000@@\000\000\000@\000\000@@\000\000\200?\000\000\200@\000\000\200@\000\000@@\000\000\200?\000\000\200?\000\000\200@\000\000@@\000\000\000@\000\000\000@\000\000\000@\000\000\200?\000\000\000@\000\000@@\000\000\000@\000\000\000@\000\000@@\000\000\240@\000\000\000@\000\000\000@\000\000\000@\000\000@@\000\000@@\000\000@@\000\000\000@\000\000 @\000\000@@\000\000\000@\000\000@@\000\000\000@\000\000@@\000\000\200?\000\000\000@\000\000@@\000\000@@\000\000\000@\000\000\000@\000\000\000@\000\000\200?\000\000\000@\000\000\200?\000\000@@\000\000\000@\000\000@@\000\000@@\000\000@@\000\000\200@\000\000@@\000\000\000@\000\000@@\000\000@@\000\000@@\000\000\000@\000\000\000@\000\000@@\000\000\000@\000\000\000@\000\000@@\000\000\200@\000\000\000@\000\000@@\000\000\200@\000\000\000@\000\000\000@\000\000@@\000\000@@\000\000\200@\000\000\200@\000\000\200@\000\000\200?\000\000\000@\000\000\340@\000\000\000@\000\000@@\000\000\000@\000\000\000@\000\000\000@\000\000\220@\000\000\000A\000\000\200?\000\000\000@\000\000@@\000\000\200?\000\000\200?\000\000 @\000\000@@\000\000\000@\000\000\000@\000\000\300?\000\000\000@\000\000\200@\000\000@@\000\000@@\000\000@@\000\000\200?\000\000@@\000\000\000@\000\000\000@\000\000@@\000\000\200?\000\000\000@\000\000\240@\000\000\200?\000\000 @\000\000@@\000\000\000@\000\000@@\000\000\200@\000\000@@\000\000@@\000\000\240@\000\000 @\000\000\200?\000\000 @\000\000\200?\000\000@@\000\000@@\000\000\200?\000\000@@\000\000@@\000\000\000@\000\000@@\000\000\000@\000\000 @\000\000\000@\000\000\200?\000\000\000@\000\000\240@\000\000\000@\000\000\200?\000\000@@\000\000\200@\000\000@@\000\000\200?\000\000\000@\000\000\240@\000\000@@\000\000\240@\000\000\240@\000\000@@\000\000\200?\000\000@@\000\000\000@\000\000@@\000\000\200@\000\000\000@\000\000\000@\000\000\200?\000\000@@\000\000@@\000\000@@\000\000@@\000\000@@\000\000\200?\000\000\200?\000\000\200@\000\000\200?\000\000@@\000\000\200?\000\000\000@\000\000\300?\000\000\240@\000\000\000@\000\000@@\000\000\200?\000\000\200?\000\000@@\000\000@@\000\000\000@\000\000\000@\000\000\000@\000\000\200?\000\000@@\000\000\000@\000\000\000@\000\000\200?\000\000@@\000\000\000@\000\000\000@\000\000\000@\000\000\000@\000\000@@\000\000@@\000\000@@\000\000\000@\000\000\200?\000\000\240@\000\000\000@\000\000@@\000\000\000@\000\000\000@\000\000\000@\000\000@@\000\000\000@\000\000@@\000\000\240@\000\000@@\000\000\000@\000\000\000@\000\000\200?\000\000\000@\000\000\200?\000\000\200?\000\000\200?\000\000\200?\000\000\200?\000\000\000@\000\000@@\000\000@@\000\000@@\000\000@@\000\000@@\000\000\000@\000\000@@\000\000@@\000\000\000@\000\000\000@\000\000\000@\000\000\240@\000\000\300@\000\000\000@\000\000@@\000\000 @\000\000\000@\000\000\240@\000\000\000@\000\000\220@\000\000\000A\000\000\200?\000\000\200?\000\000\000@\000\000\000@\000\000\200?\000\000\000@\000\000\200@\000\000\000@\000\000@@\000\000\200?\000\000\200?\000\000@@\000\000@@\000\000\000@\000\000\000@\000\000\240@\000\000\000@\000\000@@\000\000\000@\000\000\300@\000\000\000@\000\000\000@\000\000@@\000\000\200?\000\000\000@\000\000@@\000\000\200?\000\000@@\000\000\000@\000\000\000@\000\000\000@\000\000\200?\000\000\200@\000\000\000@\000\000\200?\000\000\000@\000\000\200?\000\000@@\000\000\000@\000\000@@\000\000\000@\000\000@@\000\000\000@\000\000 @\000\000@@\000\000\000@\000\000\200?\000\000\300@\000\000\200?\000\000\200@\000\000@@\000\000\000@\000\000\200?\000\000\200?\000\000\000@\000\000 @\000\000\300@\000\000@@\000\000\200?\000\000@@\000\000\000@\000\000\200@\000\000\240@\000\000@@\000\000@@\000\000@@\000\000@@\000\000\200?\000\000\000@\000\000\200?\000\000\200@\000\000\000@\000\000\000@\000\000\000@\000\000@@\000\000\200?\000\000\200?\000\000\200?\000\000@@\000\000@@\000\000\000@\000\000\000@\000\000\000@\000\000\000@\000\000\000@\000\000\000@\000\000\000@\000\000@@\000\000@@\000\000\200?\000\000\200?\000\000\200@\000\000\000@\000\000 @\000\000\000@\000\000\200@\000\000@@\000\000\000@\000\000\340@\000\000@@\000\000\000@\000\000\000@\000\000\000@\000\000`@\000\000@@\000\000\000@\000\000@@\000\000\200?\000\000\200@\000\000\000@\000\000\200@\000\000\200?\000\000@@\000\000@@\000\000@@\000\000@@\000\000@@\000\000\200?\000\000\000@\000\000 @\000\000\200@\000\000\000@\000\000\000@\000\000\000@\000\000\000@\000\000\000@\000\000@@\000\000\200@\000\000@@\000\000@@\000\000\000@\000\000\000@\000\000\000@\000\000\200@\000\000@@\000\000\200@\000\000\000@\000\000@@\000\000\200@\000\000@@\000\000\000@\315\314\214?\000\000@@\000\000@@\000\000\000@\000\000@@\000\000\200?\000\000@@\000\000\000@\000\000@@\000\000@@\000\000\000@\000\000@@\000\000\200?\000\000@@\000\000@@\000\000@@\000\000\000@\000\000\000@\000\000@@\000\000\240@\000\000\000@\000\000 @\000\000\000@\000\000@@\000\000@@\000\000\000@\000\000\200@\000\000\000@\000\000\200@\000\000@@\000\000@@\000\000@@\000\000\000@\000\000\200@\000\000@@\000\000@@\000\000\000@\000\000@@\000\000\000@\000\000@@\000\000\000@\000\000\000@\000\000\000@\000\000\000@\000\000\000@\000\000\200?\000\000@@\000\000\200?\000\000@@\000\000\000@\000\000\200?\000\000\200?\000\000\000@\000\000\000A\000\000\000@\000\000@@\000\000\000@\000\000\240?\000\000\000@\000\000\000@\000\000\200?\000\000\000@\000\000\000@\000\000\200@\000\000@@\000\000@@\000\000\200?\000\000\000@\000\000\000@\000\000\000@\000\000\000@\000\000\200?\000\000\200@\000\000@@\000\000@@\000\000\000@\000\000\000@\000\000\000@\000\000\000@\000\000\000@\000\000\200@\000\000\000@\000\000\200@\000\000\240@\000\000@@\000\000\000@\000\000\000@\000\000\200?\000\000@@\000\000@@\000\000\000@\000\000\000@\000\000\200@\000\000\000@\000\000\200?\000\000\200?\000\000\200@\000\000\200@\000\000@@\000\000\000@\000\000\000@\000\000\200?\000\000\000@\000\000\000@\000\000@@\000\000\200?\000\000\240@\000\000@@\000\000@@\000\000\200?\000\000@@\000\000@@\000\000@@\000\000\000@\000\000\200@\000\000@@\000\000\000@\000\000@@\000\000\000@\000\000\000@\000\000@@\000\000\200?\000\000\000@\000\000@@\000\000@@\000\000@@\000\000@@\000\000@@\000\000\000@\000\000\000@\000\000@@\000\000@@\000\000@@\000\000@@\000\000@@\000\000\200@\000\000@@\000\000@@\000\000@@\000\000\200?\000\000\000@\000\000\200@\000\000@@\000\000\000@\000\000@@\000\000\000@\000\000\200?\000\000\000@\000\000@@\000\000\000@\000\000\000@\000\000@@\000\000\200?\000\000\000@\000\000@@\000\000@@\000\000@@\000\000@@\000\000\200?\000\000\000@\000\000\200@\000\000\000@\000\000\300?\000\000\300@\000\000@@\000\000@@\000\000@@\000\000@@\000\000\240@\000\000\220@\000\000\000@\000\000\000@\000\000\240@\000\000@@\000\000\000@\000\000\200@\000\000@@\000\000\000@\000\000\000@\000\000@@\000\000\000@\000\000@@\000\000\200?\000\000\200@\000\000\000@\000\000@@\000\000@@\000\000\200?\000\000@@\000\000\200?\000\000\200?\000\000@@\000\000\000@\000\000\200?\000\000\220@\000\000\200?\000\000\200?\000\000\200?\000\000\000@\000\000@@\000\000\200@\000\000\200?\000\000\000@\000\000\200?\000\000@@\000\000\000@\000\000\000@\000\000\200?\000\000@@\000\000\200@\000\000\000@\000\000\000@\000\000@@\000\000\000@\000\000\000@\000\000\200?\000\000\200?\000\000\000@\000\000@@\000\000\000@\000\000@@\000\000\000@\000\000\000@\000\000\200?\000\000\200?\000\000\000@\000\000\240@\000\000\200?\000\000\000@\000\000@@\000\000\000@\000\000\200?\000\000\000@\000\000@@\000\000@@\000\000@@\000\000\000@\000\000\200?\000\000@@\000\000@@\000\000\200?\000\000\240@\000\000\000@\000\000\000@\000\000\000@\000\000@@\000\000@@\000\000\000@\000\000 @\000\000\000@\000\000\200@\000\000\200?\000\000\000@\000\000`@\000\000\200@\000\000@@\000\000\200@\000\000@@\000\000\000@\000\000@@\000\000\000@\000\000@@\000\000@@\000\000@@\000\000\200@\000\000@@\000\000@@\000\000\200?\000\000@@\000\000\200?\000\000@@\000\000\000@\000\000\000@\000\000\200@\000\000@@\000\000\000@\000\000@@\000\000@@\000\000@@\000\000@@\000\000@@\000\000@@\000\000\200?\000\000\340?\000\000\000@\000\000\200@\000\000\000@\000\000\000@\000\000@@\000\000\000@\000\000\000@\000\000@@\000\000\000@\000\000\200?\000\000\000@\000\000\200@\000\000@@\000\000@@\000\000\200@\000\000\300@\000\000@@\000\000\000@\000\000\000@\000\000\000@\000\000@@\000\000\000@\000\000\000@\000\000\000@\000\000\000@\000\000\000@\000\000@@\000\000\200?\000\000@@\000\000@@\000\000\240@\000\000\200@\000\000\000@\000\000\000@\000\000\000@\000\000\200?\000\000\200@\000\000@@\000\000@@\000\000@@\000\000\200?\000\000@@\000\000@@\000\000\000@\000\000 @\000\000@@\000\000@@\000\000\000@\000\000\000@\000\000\000@\000\000@@\000\000\200?\000\000@@\000\000\000@\000\000@@\000\000\000@\000\000\200?\000\000\000@\000\000\000@\000\000@@\000\000\200@\000\000@@\000\000\200@\000\000\000@\000\000\200?\000\000\340@\000\000\200@\000\000\200?\000\000\200?\000\000\200?\000\000\000@\000\000\200@\000\000@@\000\000\200?\000\000@@\000\000@@\000\000@@\000\000\200?\000\000\200?\000\000\000@\000\000\000@\000\000@@\000\000\000@\000\000@@\000\000\200?\000\000 @\000\000@@\000\000\000@\000\000@@\000\000\200?\000\000@@\000\000\000@\000\000\200@\000\000\000@\000\000\200?\000\000@@\000\000\200?\000\000@@\000\000@@\000\000\000@\000\000\000@\000\000@@\000\000@@\000\000\200@\000\000\200?\000\000\000@\000\000\000@\000\000 @\000\000\000@\000\000\000@\000\000\000@\000\000@@\000\000\000@\000\000@@\000\000\000A\000\000@@\000\000\000@\000\000@@\000\000\200?\000\000\200?\000\000@@\000\000\240@\000\000\000@\000\000\000@\000\000\000@\000\000@@\000\000\000@\000\000@@\000\000\200@\000\000`@\000\000\000@\000\000\000@\000\000\000@\000\000\200?\000\000 @\000\000\200?\000\000\240@\000\000\200@\000\000\200?\000\000@@\000\000\200@\000\000@@\000\000\000@\000\000@@\000\000\200?\000\000@@\000\000 @\000\000@@\000\000\000@\000\000\200?\000\000\000@\000\000\000@\000\000\200?\000\000\200@\000\000\000@\000\000\000@\000\000\000@\000\000\200@\000\000\200?\000\000@@\000\000@@\000\000@@\000\000\200?\000\000\000@\000\000@@\000\000\000@\000\000\000@\000\000@@\000\000\000@\000\000\000@\000\000@@\000\000@@\000\000\200@\000\000\200?\000\000\200?\000\000@@\000\000\000@\000\000\000@\000\000\000@\000\000\200@\000\000\000@\000\000@@\000\000\000@\000\000@@\000\000@@\000\000\200?\000\000@@\000\000\000@\000\000\000@\000\000\000@\000\000\000@\000\000@@\000\000\000@\000\000\000@\000\000\300@\000\000\200?\000\000@@\000\000\000@\000\000@@\000\000\200?\000\000\000@\000\000\000@\000\000\000@\000\000\200?\000\000\200@\000\000@@\000\000\000@\000\000@@\000\000\000@\000\000@@\000\000\000@\000\000\000@\000\000\000@\000\000\200?\000\000@@\000\000\200@\000\000\000@\000\000@@\000\000\200@\000\000\200?\000\000\000@\000\000\200?\000\000\000@\000\000\200@\000\000\000@\000\000@@\000\000@@\000\000\200?\000\000\000@\000\000@@\000\000@@\000\000\000@\000\000\200?\000\000\200?\000\000@@\000\000@@\000\000@@\000\000\000@\000\000@@\000\000\000@\000\000\200@\000\000\200?\000\000\200?\000\000@@\000\000@@\000\000\300@\000\000\000@\000\000@@\000\000\200?\000\000\240@\000\000\000@\000\000\000@\000\000@@\000\000@@\000\000\000A\000\000@@\000\000\000A\000\000\200@\000\000\000@\000\000\000@\000\000\200@\000\000\200@\000\000\000@\000\000@@\000\000@@\000\000\000@\000\000\200?\000\000\000@\000\000\000@\000\000@@\000\000@@\000\000@@\000\000@@\000\000\000@\000\000\240@\000\000@@\000\000@@\000\000\000@\000\000\200?\000\000\200@\000\000\200@\000\000@@\000\000\000@\000\000@@\000\000\000@\000\000@@\000\000\000@\000\000\000@\000\000\200@\000\000@@\000\000@@\000\000\000@\000\000\000@\000\000\000@\000\000\000@\000\000\200?\000\000\240@\000\000\000@\000\000\000@\000\000\200?\000\000@@\000\000\200?\000\000@@\000\000\000@\000\000@@\000\000@@\000\000\200?\000\000@@\000\000\200?\000\000@@\000\000@@\000\000`@\000\000\240@\000\000\200@\000\000\000@\000\000\200?\000\000\000@\000\000@@\000\000\200?\000\000\000@\000\000\200@\000\000\000@\000\000@@\000\000\000@\000\000\200?\000\000@@\000\000\000@\000\000@@\000\000\000@\000\000@@\000\000@@\000\000\200?\000\000@@\000\000\240@\000\000\200?\000\000@@\000\000\000@\000\000\200?\000\000@@\000\000\300@\000\000\000@\000\000\000@\000\000\000@\000\000@@\000\000\200?\000\000\300@\000\000\240@\000\000@@\000\000@@\000\000\000@\000\000@@\000\000\200?\000\000@@\000\000@@\000\000\000@\000\000 @\000\000\200?\000\000@@\000\000\200@\000\000\000@\000\000@@\000\000\000@\000\000@@\000\000\200?\000\000@@\000\000\000@\000\000\000@\000\000\200?\000\000@@\000\000 @\000\000\200@\000\000\000@\000\000\000@\000\000\000@\000\000@@\000\000\200@\000\000@@\000\000\000@\000\000\200?\000\000@@\000\000\000@\000\000\000@\000\000\000@\000\000@@\000\000@@\000\000@@\000\000\200?\000\000\200?\000\000\000@\000\000\200@\000\000\000@\000\000\000@\000\000\240@\000\000@@\000\000\200?\000\000\000@\000\000\000@\000\000\200?\000\000\000@\000\000@@\000\000\240@\000\000\200?\000\000\000@\000\000\000@\000\000\000@\000\000@@\000\000@@\000\000@@\000\000\000@\000\000\000@\000\000@@\000\000\000@\000\000\000@\000\000\000@\000\000\000@\000\000@@\000\000@@\000\000\200@\000\000\200?\000\000@@\000\000\000@\000\000\200?\000\000\200@\000\000\200@\000\000\000@\000\000\000@\000\000\000@\000\000@@\000\000@@\000\000@@\000\000\000@\000\000\000@\000\000\000@\000\000\000@\000\000@@\000\000@@\000\000\200?\000\000\200?\000\000@@\000\000\000@\000\000@@\000\000\000@\000\000\200?\000\000\000@\000\000\000@\000\000@@\000\000\000@\000\000@@\000\000\000@\000\000@@\000\000\200?\000\000\000@\000\000\200@\000\000\200?\000\000@@\000\000\200@\000\000\000@\000\000@@\000\000\240@\000\000\000@\000\000\200?\000\000\000@\000\000\000@\000\000@@\000\000\000@\000\000@@\000\000\200?\000\000\000@\000\000\240@\000\000\200@\000\000\200?\000\000\000@\000\000@@\000\000\000@\000\000\000@\000\000@@\000\000\000@\000\000\200?\000\000@@\000\000\200@\000\000\200?\000\000\000@\000\000\200@\000\000\300@\000\000\000@\000\000\000@\000\000@@\000\000\000@\000\000\000@\000\000\000@\000\000\000@\000\000@@\000\000 @\000\000@@\000\000\240@\000\000@@\000\000@@\000\000@@\000\000\000@\000\000@@\000\000\000@\000\000 @\000\000@@\000\000\200@\000\000@@\000\000 @\000\000\000@\000\000@@\000\000 @\000\000\240@\000\000\000@\000\000@@\000\000@@\000\000@@\000\000\000@\000\000\000@\000\000\000@\000\000\000@\000\000@@\000\000@@\000\000@@\000\000\000@\000\000\000@\000\000\200?\000\000\000@\000\000\000@\000\000 @\000\000\000@\000\000\000@\000\000@@\000\000@@\000\000\200?\000\000\200?\000\000\000@\000\000@@\000\000@@\000\000\200@\000\000\200?\000\000\240@\000\000 @\000\000@@\000\000@@\000\000\200@\000\000\000@\000\000\000@\000\000\200?\000\000\000@\000\000@@\000\000\200?\000\000@@\000\000\000@\000\000@@\000\000\200?\000\000\000@\000\000@@\000\000\200?\000\000\000@\000\000\000@\000\000\300@\000\000@@\000\000\000@\000\000\200@\000\000\000@\000\000@@\000\000\000@\000\000\200@\000\000\000@\000\000\200@\000\000\200?\000\000@@\000\000\200?\000\000\340@\000\000\000@\000\000\200?\000\000\200?\000\000\000@\000\000\000@\000\000\000@\000\000\200?\000\000\000@\000\000\000@\000\000\000@\000\000\000@\000\000@@\000\000@@\000\000\000@\000\000@@\000\000\200?\000\000\000@\000\000@@\000\000@@\000\000\200?\000\000\020A\000\000\200@\000\000\200?\000\000\200?\000\000\200?\000\000\000@\000\000\200?\000\000\200@\000\000@@\000\000@@\000\000\000@\000\000\200?\000\000@@\000\000\220@\000\000\200@\000\000\200@\000\000\000@\000\000@@\000\000@@\000\000\000@\000\000@@\000\000\000@\000\000\300?\000\000\000@\000\000\000@\000\000\000@\000\000\000@\000\000@@\000\000\000@\000\000\200?\000\000@@\000\000\240@\000\000@@\000\000@@\000\000@@\000\000\000@\000\000\000@\000\000\000@\000\000@@\000\000@@\000\000\200?\000\000\000@\000\000\000@\000\000\000@\000\000\300@\000\000\000@\000\000\000@\000\000\000@\000\000\000@\000\000@@\000\000\000@\000\000\200?\000\000@@\000\000\200@\000\000\000@\000\000\200@\000\000\200@\000\000\000@\000\000\200?\000\000@@\000\000@@\000\000\200?\000\000\000@\000\000\200@\000\000\200?\000\000\200@\000\000\200?\000\000\200?\000\000\000@\000\000@@\000\000\000@\000\000\200?\000\000\000@\000\000@@\000\000\200@\000\000\200?\000\000\000@\000\000\000@\000\000\200?\000\000\000@\000\000@@\000\000@@\000\000@@\000\000\000@\000\000\000@\000\000\200?\000\000\000@\000\000@@\000\000\000@\000\000\240@\000\000\240@\000\000\200?\000\000\000@\000\000@@\000\000\200?\000\000\000@\000\000@@\000\000@@\000\000\000@\000\000\000@\000\000@@\000\000\000@\000\000\000@\000\000\000@\000\000@@\000\000\000@\000\000\200?\000\000\000@\000\000\000@\000\000\240@\000\000@@\000\000\200?\000\000@@\000\000\000@\000\000\000@\000\000\000@\000\000\200?\000\000\200?\000\000@@\000\000\000@\000\000\000@\000\000\000@\000\000\000@\000\000@@\000\000\000@\000\000\000@\000\000@@\000\000\300@\000\000\000@\000\000\200?\000\000@@\000\000@@\000\000@@\000\000@@\000\000@@\000\000@@\000\000@@\000\000@@\000\000@@\000\000@@\000\000\000@\000\000@@\000\000\200?\000\000@@\000\000\200@\000\000\200@\000\000\000@\000\000\200@\000\000\200?\000\000\000@\000\000@@\000\000\000@\000\000\000@\000\000\000@\000\000\000@\000\000\000@\000\000@@\000\000\000@\000\000\000@\000\000\000@\000\000\200@\000\000\000@\000\000@@\000\000\000@\000\000@@\000\000\200?\000\000\000@\000\000\200?\000\000\240@\000\000@@\000\000\000@\000\000\000@\000\000@@\000\000\200?\000\000\000@\000\000\000@\000\000@@\000\000\000A\000\000\240@\000\000@@\000\000\240@\000\000\200?\000\000@@\000\000\000@\000\000 @\000\000@@\000\000\200@\000\000\000@\000\000\000@\000\000\000@\000\000@@\000\000\200?\000\000\000@\000\000\000@\000\000@@\000\000@@\000\000@@\000\000\200?\000\000@@\000\000\000@\000\000@@\000\000\200?\000\000@@\000\000@@\000\000@@\000\000\200@\000\000\000@\000\000\000@\000\000@@\000\000@@\000\000\000@\000\000\000@\000\000@@\000\000@@\000\000@@\000\000\200@\000\000\000@\000\000\000@\000\000\000@\000\000\200?\000\000\000@\000\000\000@\000\000\000@\000\000\240@\000\000@@\000\000@@\000\000@@\000\000@@\000\000\000@\000\000\240@\000\000\000@\000\000\300@\000\000\200?\000\000@@\000\000\200@\000\000\240@\000\000@@\000\000@@\000\000\000@\000\000\200@\000\000\000@\000\000@@\000\000`@\000\000\000@\000\000\200?\000\000\000@\000\000\200?\000\000@@\000\000@@\000\000\000@\000\000\000@\000\000\200@\000\000\000@\000\000@@\000\000@@\000\000@@\000\000\200@\000\000\000@\000\000\200?\000\000@@\000\000\000@\000\000\000@\000\000\200?\000\000\000@\000\000@@\000\000\240@\000\000\000@\000\000\000@\000\000`@\000\000\000@\000\000\000@\000\000\000@\000\000\000@\000\000@@\000\000@@\000\000@@\000\000\200?\000\000\200@\000\000@@\000\000\000@\000\000@@\000\000\000@\000\000\200@\000\000\000@\000\000\000@\000\000\000@\000\000@@\000\000\000@\000\000\000@\000\000\000@\000\000\000@\000\000@@\000\000@@\000\000\200@\000\000\200@\000\000\000@\000\000@@\000\000\200?\000\000\200@\000\000\000@\000\000\000@\000\000\000@\000\000\200@\000\000\000@\000\000@@\000\000\000@\000\000\000@\000\000\200?\000\000@@\000\000\000@\000\000\000@\000\000 @\000\000@@\000\000@@\000\000@@\000\000@@\000\000\200?\000\000@@\000\000\000@\000\000\000@\000\000\000@\000\000\000@\000\000\300?\000\000\000@\000\000@@\000\000\000@\000\000\200@\000\000\000@\000\000\000@\000\000\000@\000\000\000@\000\000@@\000\000\000@\000\000\200@\000\000\200@\000\000\000@\000\000\200@\000\000@@\000\000@@\000\000@@\000\000\200@\000\000\000@\000\000\000@\000\000 @\000\000\200?\000\000\200@\000\000\200?\000\000@@\000\000@@\000\000 @\000\000\200?\000\000\000@\000\000 @\000\000\200?\000\000\000@\000\000\240@\000\000\000@\000\000\200?\000\000\000@\000\000\000@\000\000\000@\000\000\000@\000\000@@\000\000\000@\000\000@@\000\000\200@\000\000\000@\000\000\000@\000\000\000@\000\000\200?\000\000\200@\000\000@@\000\000@@\000\000\000@\000\000\200?\000\000\200?\000\000@@\000\000@@\000\000\200?\000\000\000@\000\000\200?\000\000\000@\000\000\200?\000\000@@\000\000\200?\000\000\200?\000\000\000@\000\000\340@\000\000\200@\000\000\000@\000\000\000@\000\000\000@\000\000\000@\000\000\200@\000\000@@\000\000\000@\000\000\000@\000\000\000@\000\000\200@\000\000@@\000\000\000@\000\000\000@\000\000\200?\000\000@@\000\000\000@\000\000\000@\000\000@@\000\000@@\000\000@@\000\000@@\000\000@@\000\000\200@\000\000@@\000\000\000@\000\000\000@\000\000@@\000\000\200@\000\000\200?\000\000\000@\000\000@@\000\000\000@\000\000 @\000\000@@\000\000@@\000\000@@\000\000\000@\000\000@@\000\000\000@\000\000\200?\000\000\200?\000\000@@\000\000\200@\000\000@@\000\000\000@\000\000\000@\000\000@@\000\000\200?\000\000\000@\000\000\000@\000\000\000@\000\000\000@\000\000@@\000\000\000@\000\000@@\000\000\000@\000\000@@\000\000@@\000\000\000@\000\000@@\000\000@@\000\000\200?\000\000@@\000\000@@\000\000@@\000\000\000@\000\000\000@\000\000\000@\000\000\000@\000\000 @\000\000@@\000\000 @\000\000 @\000\000\240@\000\000\200@\000\000\000@\000\000@@\000\000\000@\000\000@@\000\000@@\000\000@@\000\000@@\000\000\200?\000\000\200?\000\000\240@\000\000\200@\000\000\200?\000\000\000@\000\000\240@\000\000@@\000\000\000@\000\000@@\000\000@@\000\000\000@\000\000@@\000\000@@\000\000\000@\000\000@@\000\000\000@\000\000@@\000\000\000@\000\000\000@\000\000@@\000\000\000@\000\000\000@\000\000@@\000\000\000@\000\000\240@\000\000\200?\000\000\240@\000\000\240@\000\000\200@\000\000\240@\000\000\340?\000\000@@\000\000@@\000\000\000@\000\000@@\000\000@@\000\000`@\000\000@@\000\000\240@\000\000\200@\000\000@@\000\000\000@\000\000\000@\000\000@@\000\000\000@\000\000\000@\000\000@@\000\000@@\000\000@@\000\000@@\000\000@@\000\000\200@\000\000@@\000\000\200?\000\000@@\000\000\000@\000\000\000@\000\000\000@\000\000\000@\000\000@@\000\000\200?\000\000\240@\000\000\000@\000\000@@\000\000@@\000\000\000@\000\000@@\000\000@@\000\000\000@\000\000\000@\000\000\000@\000\000\200@\000\000\200?\000\000\000@\000\000\000@\000\000@@\000\000@@\000\000\000@\000\000\200@\000\000@@\000\000\200?\000\000\000@\000\000\000@\000\000\000@\000\000\000@\000\000@@\000\000@@\000\000\300@\000\000\200?\000\000\200?\000\000@@\000\000\000@\000\000@@\000\000@@\000\000\000@\000\000\000@\000\000\000@\000\000@@\000\000@@\000\000\200?\000\000@@\000\000@@\000\000\200?\000\000\000@\000\000\000@\000\000\000@\000\000@@\000\000\000@\000\000\200@\000\000\200?\000\000\000@\000\000@@\000\000 @\000\000@@\000\000\200?\000\000@@\000\000 @\000\000@@\000\000\000@\000\000\000@\000\000@@\000\000@@\000\000\000@\000\000@@\000\000@@\000\000\000@\000\000\000@\000\000@@\000\000@@\000\000\000@\000\000\000@\000\000\200?\000\000\000@\000\000@@\000\000\000@\000\000\200@\000\000\000@\000\000\000@\000\000\000@\000\000\000@\000\000\200?\000\000\000@\000\000\000@\000\000\200?\000\000\000@\000\000\000@\000\000\000@\000\000\000@\000\000\000@\000\000\000@\000\000\300@\000\000@@\000\000\200@\000\000\200@\000\000@@\000\000\200?\000\000\200?\000\000@@\000\000\000@\000\000@@\000\000\200?\000\000\000@\000\000\000@\000\000\200?\000\000\000@\000\000\340@\000\000\200?\000\000@@\000\000\300@\000\000@@\000\000@@\000\000\000@\000\000@@\000\000\000@\000\000\000@\000\000\200?\000\000\000@\000\000\000@\000\000\000@\000\000\000@\000\000\000@\000\000\200@\000\000@@\000\000\000@\000\000\000@\000\000\000@\000\000\240@\000\000\000@\000\000@@\000\000@@\000\000@@\000\000\000@\000\000\200@\000\000\200@\000\000\200@\000\000@@\000\000\000@\000\000\200?\000\000@@\000\000@@\000\000@@\000\000\200?\000\000\200?\000\000@@\000\000\240@\000\000\000@\000\000 @\000\000\200?\000\000\020@\000\000\200?\000\000@@\000\000\240@\000\000@@\000\000\200?\000\000\000@\000\000\000@\000\000@@\000\000\000@\000\000\000@\000\000@@\000\000\200@\000\000\200?\000\000\200@\000\000\000@\000\000\000@\000\000@@\000\000\240@\000\000\200?\000\000\000@\000\000@@\000\000\200?\000\000@@\000\000@@\000\000\000@\000\000@@\000\000\300?\000\000\200?\000\000 @\000\000\000@\000\000@@\000\000@@\000\000@@\000\000\000@\000\000@@\000\000\200?\000\000\000@\000\000\200?\000\000\000@\000\000@@\000\000\200@\000\000\300?\000\000\000@\000\000\000@\000\000\000@\000\000\000@\000\000@@\000\000\240@\000\000\000@\000\000\200@\000\000\200@\000\000\000@\000\000\000@\000\000 @\000\000@@\000\000@@\000\000\000@\000\000\200?\000\000@@\000\000@@\000\000\340@\000\000@@\000\000 @\000\000\000@\000\000\200?\000\000\200?\000\000\000@\000\000\000@\000\000@@\000\000\000@\000\000\000@\000\000\000@\000\000@@\000\000@@\000\000\000@\000\000\200?\000\000\000@\000\000@@\000\000\000@\000\000@@\000\000\200@\000\000\240@\000\000\000@\000\000\000@\000\000@@\000\000\200?\000\000\300@\000\000\000@\000\000\000@\000\000\200@\000\000 @\000\000@@\000\000@@\000\000\000@\000\000\200@\000\000\000@\000\000\000@\000\000\000@\000\000\200@\000\000\000@\000\000@@\000\000\000@\000\000\200?\000\000\000@\000\000\200@\000\000\000@\000\000@@\000\000\000@\000\000\000@\000\000\200?\000\000\000@\000\000@@\000\000\000@\000\000\200?\000\000@@\000\000\200?\000\000\200@\000\000\200@\000\000\000@\000\000@@\000\000\000@\000\000@@\000\000@@\000\000@@\000\000\000@\000\000\240@\000\000\200@\000\000\000@\000\000@@\000\000\200?\000\000\000@\000\000\000@\000\000@@\000\000@@\000\000\000@\000\000\200@\000\000\000@\000\000\000@\000\000@@\000\000\000@\000\000\200@\000\000\000@\000\000\000@\000\000@@\000\000\200?\000\000 @\000\000\300?\000\000\240@\000\000@@\000\000@@\000\000\000@\000\000\000@\000\000\200?\000\000\200?\000\000@@\000\000\200?\000\000\000@\000\000\300@\000\000@@\000\000\200?\000\000@@\000\000@@\000\000@@\000\000@@\000\000\000@\000\000\000@\000\000\200?\000\000@@\000\000\000@\000\000@@\000\000\000@\000\000@@\000\000\000@\000\000\000@\000\000@@\000\000\000@\000\000@@\000\000\200?\000\000@@\000\000@@\000\000 @\000\000\000@\000\000@@\000\000\200?\000\000@@\000\000\000@\000\000@@\000\000\000@\000\000\000@\000\000\000@\000\000@@\000\000@@\000\000\200@\000\000\200?\000\000@@\000\000\000@\000\000\000@\000\000\000@\000\000\200@\000\000\000@\000\000\200?\000\000\200?\000\000\000@\000\000 @\000\000\000@\000\000@@\000\000@@\000\000\000@\000\000\000@\000\000@@\000\000\000@\000\000\000@\000\000\000@\000\000\340@\000\000@@\000\000\000@\000\000@@\000\000\000@\000\000@@\000\000@@\000\000\240@\000\000@@\000\000\200?\000\000\260@\000\000\200?\000\000\200?\000\000\240@\000\000\000@\000\000\000@\000\000\000@\000\000\000@\000\000\000@\000\000@@\000\000\240@\000\000@@\000\000@@\000\000\000@\000\000@@\000\000\240@\000\000\000@\000\000@@\000\000@@\000\000\000@\000\000@@\000\000\000@\000\000\200?\000\000\200?\000\000\340@\000\000\240@\000\000@@\000\000@@\000\000@@\000\000@@\000\000\300@\000\000\000@\000\000@@\000\000\000@\000\000\000@\000\000@@\000\000\200?\000\000@@\000\000\000@\000\000\200?\000\000@@\000\000@@\000\000\000@\000\000@@\000\000@@\000\000@@\000\000\000@\000\000@@\000\000\200?\000\000\000@\000\000\000@\000\000\200?\000\000@@\000\000\000@\000\000\000@\000\000\240@\000\000\300@\000\000`@\000\000\200?\000\000\000@\000\000\200?\000\000\200@\000\000\000@\000\000@@\000\000\000@\000\000@@\000\000@@\000\000@@\000\000\200?\000\000@@\000\000@@\000\000@@\000\000@@\000\000\200@\000\000\000@\000\000\000@\000\000@@\000\000\200?\000\000\200?\000\000\000@\000\000@@\000\000@@\000\000\000@\000\000@@\000\000\000@\000\000\200?\000\000\240@\000\000\000@\000\000@@\000\000\200@\000\000\000@\000\000\000@\000\000\000@\000\000@@\000\000\000@\000\000\000@\000\000\200@\000\000\000@\000\000\000@\000\000\000@\000\000@@\000\000\240@\000\000\000@\000\000\000@\000\000\200?\000\000\200?\000\000\200?\000\000\000@\000\000\000@\000\000@@\000\000@@\000\000\200@\000\000@@\000\000\000@\000\000\000@\000\000\200?\000\000\200?\000\000@@\000\000\000@\000\000\000@\000\000@@\000\000\200?\000\000@@\000\000\000@\000\000\000@\000\000\200@\000\000\200?\000\000@@\000\000@@\000\000\200@\000\000\000@\000\000\000@\000\000\000@\000\000@@\000\000@@\000\000\200?\000\000@@\000\000\000@\000\000\300@\000\000\200@\000\000\000@\000\000\200?\000\000\000@\000\000\000@\000\000\200?\000\000\000@\000\000\200?\000\000@@\000\000@@\000\000\240@\000\000@@\000\000\000@\000\000\000@\000\000\200?\000\000\000@\000\000\000@\000\000\000@\000\000\000@\000\000\000@\000\000@@\000\000@@\000\000\000@\000\000@@\000\000\000@\000\000@@\000\000\000@\000\000@@\000\000\020A\000\000\000@\000\000\240@\000\000\260@\000\000\000@\000\000@@\000\000@@\000\000\200@\000\000@@\000\000\000@\000\000\300@\000\000@@\000\000\000@\000\000\200@\000\000 @\000\000\200?\000\000\200@\000\000\000@\000\000\000@\000\000@@\000\000\000@\000\000\000@\000\000\200@\000\000\000@\000\000\000@\000\000\200@\000\000\000@\000\000\200?\000\000\000@\000\000\000@\000\000\000@\000\000\000@\000\000@@\000\000\000@\000\000@@\000\000\000@\000\000@@\000\000@@\000\000\000@\000\000@@\000\000\000@\000\000@@\000\000\000@\000\000@@\000\000\200@\000\000\200?\000\000\240@\000\000@@\000\000@@\000\000@@\000\000\260@\000\000\000@\000\000\200?\000\000@@\000\000\000@\000\000\200@\000\000\000@\000\000\000@\000\000\200?\000\000@@\000\000@@\000\000\200?\000\000\200?\000\000\000@\000\000@@\000\000@@\000\000\200@\000\000@@\000\000\200?\000\000\000@\000\000\200?\000\000\200?\000\000\000@\000\000\200?\000\000\000@\000\000\000@\000\000\200?\000\000\000@\000\000\200@\000\000\200@\000\000\000@\000\000\000@\000\000\200@\000\000\000@\000\000\000@\000\000\000@\000\000@@\000\000@@\000\000\000@\000\000\000@\000\000\200?\000\000\200?\000\000@@\000\000\000@\000\000\300@\000\000@@\000\000\000@\000\000\000@\000\000\000@\000\000\000@\000\000\000@\000\000@@\000\000\200?\000\000 @\000\000\000@\000\000\200@\000\000@@\000\000\200@\000\000@@\000\000\200?\000\000\000@\000\000\200@\000\000\000@\000\000\200@\000\000\000@\000\000\000@\000\000\000@\000\000\000@\000\000\000@\000\000\200?\000\000@@\000\000\240@\000\000\000@\000\000\000@\000\000\000@\000\000\000@\000\000@@\000\000\200@\000\000@@\000\000\200?\000\000\000@\000\000\000@\000\000\000@\000\000\000@\000\000@@\000\000@@\000\000\200@\000\000 @\000\000\200@\000\000\240@\000\000@@\000\000\000@\000\000\000@\000\000@@\000\000\000@\000\000\200?\000\000\000@\000\000\000@\000\000\200?\000\000\200?\000\000\000@\000\000\200?\000\000\000@\000\000\200@\000\000@@\000\000\000@\000\000\000@\000\000\000@\000\000\000@\000\000\200?\000\000\200?\000\000\000@\000\000\000@\000\000\000@\000\000\000@\000\000\000@\000\000@@\000\000@@\000\000\000@\000\000\000@\000\000\000@\000\000@@\000\000@@\000\000\200?\000\000\240@\000\000\240@\000\000\200?\000\000\000@\000\000\200?\000\000\200@\000\000\000@\000\000\000@\000\000\000@\000\000\000@\000\000\000@"
      }
    }
  }
}
node {
  name: "Const_2"
  op: "Const"
  attr {
    key: "_output_shapes"
    value {
      list {
        shape {
          dim {
            size: 2508
          }
          dim {
            size: 1
          }
        }
      }
    }
  }
  attr {
    key: "dtype"
    value {
      type: DT_FLOAT
    }
  }
  attr {
    key: "value"
    value {
      tensor {
        dtype: DT_FLOAT
        tensor_shape {
          dim {
            size: 2508
          }
          dim {
            size: 1
          }
        }
        tensor_content: "\000\300\030E\000\300\215D\000\200JD\000\000\314D\000 \322D\000\340\231D\0000LE\000\200hD\000\340\222E\000\220\027E\000 \370D\000 \245D\000\200`D\000\000zE\000\340\\E\000\240\002E\000\000\203D\000\200\236D\000\000pD\000\200\266D\0000\036E\000 \240D\000\000\346D\000\300\303D\000`sE\000\340\257D\000\200\220D\000@\332D\000\200\254D\000`$E\000\200\274D\000`\245D\000\000:E\000`\331D\000\300\235D\000\340\006E\000@\347D\000\240$E\000\300bD\000\300\001E\000\200\375D\000@\252D\000\000\202D\000\200\323D\000\200\334D\000\200+D\000 \226D\000\340\260D\000\200\023E\000\240\256D\000\200\270D\000\340\rE\000 @E\000`\357D\000\300\260D\000\000\241D\000\0204E\000 \003E\000\000\306D\000@\221D\000\240\305D\000`\344D\000@\303D\000\200\240D\000\200\340D\000\000\310D\000\200\305D\000@\rE\000 \221E\000@\220D\000@\354D\000\200\346D\000\340\330D\0000?E\000\240$E\000\000\026E\000\300\203D\000\200\276D\000@\315E\000 \257D\000p\031E\000\300\017E\000\000\207D\000\300\211D\000\370\270E\000\000\341E\000@\177D\0000\014E\000 \376D\000\300\023D\000\000nD\000\240\353D\000\020\010E\000\200\350D\000@\257D\000\2001D\000@\262D\000\340xE\000\020[E\000\300\245D\000@\033E\000\200}D\000 LE\000\300\303D\000\240\252D\0000\003E\000\200\244D\000\240\267D\000\000<E\000\200BD\000\000\331D\000`\316D\000\300\317D\000\340\311D\000\2001E\000`[E\000PAE\000\0008E\000\2202E\000\000ZD\000\300\344D\000\340\206D\000\2201E\000\200VE\000\200cD\000\000\036E\000\200\365D\000@{D\000`\356D\000`\237D\000@\306D\000`\316D\000\200\222D\000\360\007E\000\320_E\000\340\231D\000\340\241D\000\300$E\000\340\376D\000 \024E\000\000RD\000\200hD\000\200RE\000\200\236D\000\340<E\000\350\263E\000\320\006E\000\000^D\000\000\314D\000\000\241D\000@\020E\000\020\036E\000\300\256D\000\300\332D\000@gD\000\240aE\000\000\256D\0000=E\000\240\014E\000\240\033E\000@\204D\000\200\\D\000\200RE\000\000zD\000\200\030E\000\2004D\000\340\247D\000\200\240D\000pYE\000\000\243D\000\300\363D\000\300(D\000\200GD\000\000\034E\000\300\232D\000\240\300D\000\000\332D\000\000\365D\000\200@D\000\200\036E\000\000\271D\000\000\326D\000\000uD\000\340\340D\000\300\215D\000\200\313D\000\300\351D\000 \274D\000\240gE\000\200\262D\000\240\371D\000\200\211D\000\200\241D\000\340fE\000\300\304D\000@\252D\000 \273D\000 \337D\000`\311D\000\340TE\000\200\271D\000\300\312D\000\200\242E\000`\343D\000\020\tE\000\340\307D\000\000|D\000\000\252D\000\300\203D\000\000}D\000\000\216D\000\300ZD\000\340\201D\000\240\000E\000\200,E\000\020 E\000\200\010E\000\260\016E\000\200\032E\000\300\241D\000\340\335D\000\200\307D\000\240\261D\000\000\233D\000@5D\000\300\217E\000\010\312E\000@\232D\000\260GE\000p.E\000\300\332D\000`\006E\000\240\215D\000\320\204E\000\030\265E\000\240\261D\000\000\203D\000\240\215D\000\000\237D\000\000lD\000\200\235D\0000iE\000\000\264D\000@\002E\000\300\226D\000\200{D\000\360\037E\000\000BE\000@\215D\000\300\272D\000\340<E\000\340\320D\000\320NE\000@\372D\000\340\265E\000@\317D\000 \371D\000\260?E\000\000\372C\000\300\276D\000\000\304D\000\200\027D\000\200\330D\000@\341D\000@\352D\000\200\341D\000\200jD\000\360VE\000@\305D\000\000zD\000`\006E\000\000\010E\000\340\242D\000\000\230D\000\200\rE\000\300\330D\000\220\036E\000\000oD\000\320\023E\000 \024E\000\300\310D\000\000jD\000\000\365E\000@\200D\000p\010E\000\240\326D\000\240\233D\000\000_D\000\000\220D\000\300\255D\000\200\345D\000\300\240E\000\340\354D\000\240\204D\000@\367D\000\200\361D\000\240%E\000\350\210E\000@\025E\0000EE\000\360\216E\000\340)E\000\340\234D\000\000\242D\000\300qD\000 \217E\000\240\261D\000\300\217D\000`HE\000\200\023E\000\300kD\000 \211D\000@8D\000\260&E\000\200\325D\000 \222D\000\340\300D\000@\305D\000\000\002E\000\340\366D\000`\247D\000`\374D\000\300\367D\000\260 E\000\200HD\000`\235D\000\350\214E\000\240\332D\000`!E\000\300\243D\000p`E\000\200\350D\000\340\225D\000\030\347E\000\000\371D\000@\315D\000 \271D\000\300\225D\000\340ZE\000\370\305E\000@\344D\000\000\256D\000\000@D\000\320\032E\000\200\201D\000@\201E\000\000ID\000\000\257D\000\240(E\000\000;E\000\000wE\000\2404E\000\200\324D\000\200\226D\000@\337D\000\340,E\000\300\214D\000\240\252D\000\000\312D\000\000\256D\000 \325D\000p6E\000@\311D\000\200\325D\000\000\016E\000\200\213D\000`\270D\000\340\263D\000\310\203E\000\300\000E\000`iE\000 \000E\000`\352D\000\2404E\000\000%E\000@\264D\000@\003E\000\260\007E\000\300\336D\000\200\367D\000\260(E\000\000\"D\000\200\320D\000\200\317D\000\300\357D\000P\rE\000\200\220D\000\340\357D\000\200\252D\000\260\006E\000`\256D\000\000\035E\000\200\205D\000\200\267D\000`\354D\000\000HE\000\200\317D\000\300\002E\000\240\260D\000\240HE\000\240\023E\000`\207D\000\340\273E\000`\277D\0000zE\000\300\315D\000\300+E\000\000\371D\000@\261D\000\200\004E\000\340!E\000\020\001E\000\340\014E\000\320=E\000@\256D\000\220\036E\000`\231D\000\200\272D\000@\232D\000\000\245D\0000\035E\000\000\225D\000\340\302D\000\300\224D\000\020\005E\000\300\205D\000\000\201D\000\200\210D\000\2007E\000@\034E\000\200\212D\000\300\031E\000\340\214D\000\240\271D\000\240\211D\000\000\214D\000\000rD\000\200\001E\000\000\244D\000\300\277D\000@\354D\000P`E\000 \272D\000\200\244D\000\200\224D\000 \313D\000\240\235D\000\200\036D\000\3206E\000\320%E\000\360\002E\000\020\007E\000\300\246D\000\000\377D\000\000\202D\000\340\255D\000P\202E\000\300\005E\000 KE\000\000\036E\000\020\037E\000\000\242D\000@\244D\000\300[D\000\200\035E\000\240\274D\000\300AE\000\000\334D\000p(E\000\220\000E\000\200mD\000\200\230D\000`LE\000\200\'E\000`\374D\000\200\277D\000\000\300D\000\300\\D\000\300\306D\000\200\215D\000\020 E\000`\254D\000\220cE\000\340\353D\000\2606E\000\200zD\000@\026E\000`\016E\000@\265D\000\000\310D\000\240pE\000\000\367D\000\200\277D\000p\020E\000\200\306D\000\200\205D\000\340\017E\000\200ID\000 \323D\000\320\005E\000@\275D\000\300(E\000 CE\000\3609E\000\000\265D\000\340\264D\000`\006E\000`\022E\000\220ZE\000\260QE\000\300\320D\000\240IE\000 \306D\000\200\"E\000\000\245D\000@\246D\000`\366D\0000wE\000@SE\000\000\223D\000`\371D\000@\221D\000\3009D\000\240\323D\000 \364D\000\000\257D\000\000\215D\000 \270D\000\000XD\000\340\321D\000`\002E\000\000\341D\000\000\026E\0000\023E\000\200\210D\000 \201D\000`cE\000\300\360D\000@\223D\000\220\227E\000\260\021E\000`\301D\000\340\000E\000\000\304D\000\240oE\0000}E\000\000bD\000@\222D\0000\253E\000\240\302D\000\200\245D\000\020HE\000\000\016E\000\300\312D\000\000pD\000`\264D\000\000\320D\000\000 E\000\200\355D\000 mE\000\340\274D\000\240\351D\000p\001E\000@\217D\000\340\373D\000\300\203D\000\000\332D\000\030\234E\000\000\230D\000\000\236D\000\260eE\000\000sD\000\000_D\000\300_D\000\200\317D\000 \325D\000\320&E\000\000sD\000\320\tE\000\000_D\000\260\034E\000\000\244D\000\240\377D\000\200^D\000@1E\000\320wE\000\300\217D\000\340\230D\000\300\330D\000\340\253D\000\000\204D\000 \240D\000@\000D\000\000|D\000`KE\000\340\260D\000\000\372D\000 \322D\000\000sD\000\0006D\000\000.D\000\000\327D\000`\206E\000\0004D\000\340\226D\000\300\371D\000@\244D\000\000zD\000\000\352D\000\260:E\000p\001E\000\000\036E\000\240\233D\000\200vD\000 \035E\000 SE\000\000\201D\000\240\223E\000\240\312D\000@\252D\000\300\273D\000\240\370D\000\3405E\000\000\204D\000\340\010E\000\200\324D\000\220\251E\000\200;D\000`\224D\000\320(E\000@\211E\000 *E\000\360WE\000@\035E\000\340\221D\000\000\332D\000\260\nE\000\340\013E\000`\032E\000`\266D\000`\357D\000`\006E\000\000\360D\000\000SD\000 !E\000\000AD\000\340\006E\000\200\253D\000\000\234D\000\360[E\000\000\352D\000\000\303D\000\240\324D\000\300\307D\000\200\314D\000\340\006E\000pRE\000\300\353D\000\2006D\000\300\254D\000`\235D\000\2205E\000\200\253D\000 \314D\000\220KE\000\000\217D\000`\262D\000`\333D\000 \213D\000\000\007D\000\300\326D\000\320?E\000\340\010E\000\320\tE\000\020jE\000 \313E\000@\373D\000\000\253D\000\340\306D\000\000\307D\000\260\021E\000\200OE\000`\300D\000\300\343D\000\000\305D\000`\261D\000\340\rE\000\300[D\000\300\335D\000`&E\0000\242E\000@\022E\000@\311D\000\200\250D\000 \320D\000\000zD\000\320;E\000\260;E\000`\353D\000\340\331D\000\000!D\000@\302D\000\200\352D\000\200\204D\000p\023E\000\360YE\000\220\nE\000\000\207D\000 \222D\000\000\232D\000 \271D\000@0D\000\300\370D\000\200\245D\000\340\017E\000\200\314D\000\300iD\000\000\270D\000 \315D\000\000[E\000\240\320D\000\260\026E\000\220[E\000\300\231D\000\300\224D\000\270\316E\0000lE\000@\241D\000\300\212D\000\300\206D\000`\363D\000\000BE\000\240\033E\000\000CD\000\220\rE\000\000\245D\000@&E\000\000\020D\000\000yD\000`\322D\000 \276D\000 BE\000@\237D\000@\334D\000 \207D\000\220\016E\000\2404E\000@\271D\000\200\314D\000\200mD\000\220\026E\000 \314D\000 /E\000 \205D\000\200DD\000\300\307D\000\000\033D\000\240\315D\000\000\377D\000\200\312D\000\200\245D\000\000\302D\000p\036E\000 \200E\000\300\217D\000\340\346D\000\000\234D\000\340\246D\000\340\254D\000\300\267D\000\240\225D\000`\301D\000\200\230D\000p\025E\000@\234E\000\320OE\000\300\311D\000@\027E\000\300LD\000\000\177D\000\240:E\000\340sE\000\340\254D\000\240\262D\000\300\261D\000\300\026E\000\000XD\000\200\212D\0000JE\000\200?E\000\200\312D\000\000-E\000\240\254D\000\000\224D\000\300\307D\000@JD\000 vE\000@AE\000\300>D\000P=E\000\260OE\000PCE\000\000\367D\000p*E\000\300`D\000\340\000E\000\000\272D\000\260\002E\000\000\325D\000\000\356C\000\200\246D\000\200\210D\000\2009D\000\020%E\000@\336D\000\200\237D\000@\316D\000\300EE\000 \217D\000pCE\000\000\343D\000\360\032E\000\000\007D\000\240\261D\000P\037E\000`\233D\000\000\217D\000\220nE\000\000\323D\000\300\320D\000\240\346D\000\360+E\000\3008E\000\200;D\000\300CD\000\260%E\000\300\325D\000\240\255D\000\000\363D\000p\214E\000\000\216D\000\200\332D\000\340\340D\000P\036E\000\240\375D\000\000gD\000`\274D\000 \230D\000`\252D\000\340\227D\000\000\276D\000\260\037E\000\200\273D\000\340\310D\000\200\242D\000\200ND\000\200;E\000\200\tE\000\020\024E\000@RD\000\360=E\000 \273D\000\240\220D\000\000dD\000\0007E\000`\376D\000@\022E\000@\362D\000\240\377D\000p\030E\000\200\311D\000\300\213D\000\200\260D\000\300hD\000\240\366D\000\270\202E\000\200\273D\000PBE\000\340\200E\000\300vD\000\200\317D\000@FD\000\200\307D\000\2405E\000\240\227D\000@\034E\000@\371D\000`\200D\000\300\267D\000\240\367D\000\240WE\000@\212D\000\300\rD\000@WD\000@\337D\000@\320D\000\200\327D\000\000pD\000\240\370D\000\220eE\000\020\032E\000\200,D\000\200jD\000\340\022E\000@\323D\000\260\340E\000\000\355D\000\200\351D\000\200mD\0000\237E\000\000\275D\000\300\304D\000\340\372D\000 LE\000\3506F\000P\036E\000\000\305E\000\2404E\000\340\210D\000\000\332D\000\000jE\000 fE\000\240\327D\000\260;E\000\200\375D\000\000\310D\000\240\224D\000\340\366D\000\200\324D\000\240\366D\000\300\027E\000@\\E\000`.E\000`\334D\000\240bE\000\240\213D\000@(E\000\000\365D\000\340\227D\000\260BE\000\350\210E\000\000\023E\000 \316D\000\320\026E\000\300\322D\000\200\320D\000@\205D\000\200\237D\000p\031E\000\220\022E\000p E\000\300\211D\000\340\216D\000`\305D\000\240\226D\000\000fD\000\200tE\000\300\304D\000\000\347D\000\300iD\000`\322D\000\200hD\000@\010E\000@\250D\000\340\264D\000`\013E\000\200\215D\000`\305D\000\200=D\000\000\326D\000\360\033E\000\200TE\000\350\312E\000\340^E\000\300\226D\000\300YD\000 \202D\000 JE\000\300\213D\000\300\201D\0000EE\000@\260D\000 \024E\000\300\020E\000\300sD\000\200\021E\000\200\211D\000@\355D\000\000\300D\000P\021E\000\000\352D\000\340\227D\000\000\306D\000\360@E\000\000HD\000\220\034E\000\240\232D\000\300\325D\000\020\nE\000\330\277E\000\300\023E\000\300\274D\000 \326D\000@\350D\000\000jD\000`EE\000\330\204E\000\300\310D\000P?E\000P\034E\000\240\370D\000\200\023D\000\300\272D\000\220\nE\000\000\342D\000\000\343D\000@\257D\000\200!E\000P5E\000\340\273D\000`\360D\000\360!E\000P#E\000\200mD\000\240\035E\000p\000E\000\200mD\000@-D\000\000\nE\000\300\333D\000\200NE\000\200\273D\000\000\207D\000\300\017E\000\360 E\000\300\"E\000\340\022E\000@\345D\000\200\027D\000\000\340D\000\200\300D\000\000\211D\000\000\247D\000\000%E\000\300\271D\000\240\007E\000\200 D\000\240\225D\000 \216D\000\340!E\000`\276D\000`\272D\000h\207E\000\200\036E\000@\203D\000\000\324D\000\340\266D\000`\232D\000\300\177D\000\340\001E\000\020ZE\000 \214D\000\300\342D\000\300\341D\000\000\257D\000@\374D\000\260\037E\000`\263D\000\200{D\000\340\233D\000 2E\000\000\231D\000 \301D\000\000ND\000@\276D\000 \311D\000`\021E\000\260\250E\000\000xD\000\240\nE\000@\244D\000\000fD\000`\026E\000\300\024E\000\340\366D\000\000\220D\000`\344D\000 \336D\000\260\013E\000P,E\000\000\264D\000\240\266D\000\300\236D\000\240\325D\000\300\250D\000\300\031E\000\000XD\000\300FD\000\200\332D\000\340\022E\000`\006E\000\000|D\000\000/D\000\300\360D\000\200\275D\000\260KE\000`\334D\000 \374D\000\340\315D\000 \315D\000@\203D\000@\351D\000@\375D\000@\304D\000\220\024E\0000\020E\000\200\324D\000\220\007E\000\360\261E\000\300\277D\000`\203D\000\200\234D\000\340\267D\000\000TE\000 \265D\000@=E\000\200\216D\000\200\364D\000\250\234E\000\250\226E\000\300\nD\000\000\301D\000p\021E\000\200\300D\000\200\350D\000\000\255D\000\000\271D\000\000\200D\000\000\007E\000\200\324D\000\200@D\000\000XD\000\000\tE\000\000zE\000\000\234D\000`\243D\0000\007E\000\240\252D\000@\235D\000\300\204D\000\300\307D\000\200\305D\000`\342D\000`\350D\000\270\202E\000@\260D\000\340\020E\000\240\327D\000\000\267D\000\300\252D\000 \216D\000\240\007E\000\000\300D\000\000\031E\000`\344D\000 (E\000\240\243D\000\000\231D\000 \006E\000\300\250E\000\300\224D\000@\tE\000\360\rE\000\220\005E\000\340\224D\000\340\245D\000\000\231D\000@\242D\000\300\300D\000 \017E\000`\326D\000\000zD\000@\356D\000\200\035D\000\000\214D\000@\330D\000\260\010E\000\000\226D\000`\347D\000\340\365D\000 \366D\000\000\253D\000\300\235D\000p\022E\000`\303D\000\340\320D\000\300AE\000@\255D\000\220uE\000\000\356D\0000\023E\000`$E\000p#E\000\340\254D\000\300\224D\000\200`D\000\200\332D\000\000\241D\000@\223D\000\000\362D\000\000\221D\000\300\013E\000\200KD\000@GD\000\360!E\000\300ND\000\300\236D\000\240\246D\000P\255E\000\300\370D\000\300\227D\000\230\256E\000\300\270D\000@&E\000\200\350D\000@9E\000@\356D\000\200\"E\000\200VD\000\000\355D\000\200\273D\000\270\273E\000\200\277D\000@eD\000@ID\000\000sD\000\000\341D\000\000\332D\000\240\263D\000\000\312D\000\200qD\000\240\310D\000\200\243D\000\340\035E\000\360\002E\000@\316D\000\300\205D\000\200\216D\000\200\276D\000\340*E\000\320QE\000\000bD\000\310\304E\000\340\242D\000\300{D\000\000\202D\000\000(D\000\000\226D\000\300bD\000`\205E\000\200\265D\000\360$E\000\300\257D\000\300YD\000\300\266D\000@\034E\000`\\E\000\240hE\000`\353D\000\300\021E\000@;E\000@\252D\000 \366D\000\240\304D\000\000zD\000\200\214D\000\300\265D\000`\010E\000\000\241D\000\240\"E\000\000WD\000\300\211D\000@\260D\000@{E\000\200\372D\000\340BE\000\300\tE\000\300\263D\000\300\301D\000\000\272D\000@\036E\000\240\374D\000@ZD\000`\306D\000\300\250D\000\000aD\000P\237E\0000\013E\000\000\226D\000@\264D\000\200yD\0000\024E\000@\257D\000@-D\000 >E\000P\022E\000\300\235D\000\200\301D\000\200JE\000\000\216D\000\200QD\000@\022E\000\000\014E\000@nD\000@\275D\000pxE\000@\241D\000 TE\000\300>D\000\300\024D\000\200\257D\000`\346D\000\300\256D\000\200}D\000\340\227D\000`BE\000\340:E\000\000@D\000\000\264D\000`\331D\000\300GD\000\240\303D\000\260YE\000@\272D\000\340\253D\000 \263D\000\000\216D\000\000]D\000\200\026E\000\300\265D\000\000\207D\000P3E\000\250\230E\000\000\nD\000\300\275D\000\340\027E\000\300GD\000\000\237D\000@\377D\000\200\321D\000`\255D\000\000\303D\000\220\001E\000\000\346D\000 \325D\000\000\205D\000\000\315D\000 \315D\000\000JD\000\200\243D\000\240\205D\000\300\231D\000\240\333D\000\000fD\000\300\006E\000\000\203D\000\000\310D\000\200\251D\000\200\222D\000\200\215D\000\200\332D\000 \221D\000P\022E\000\000\247D\000\200\242D\000\200;E\000@\353D\000@\274D\000\340\030E\000\240\214E\000 \243D\000\200\220D\000p,E\000@\315D\000\200\273D\000\200\020E\000\240\302D\000P9E\000`\006E\000\000\037E\000\200\tE\000\200\035E\000 \225D\000\240\003E\000\000zD\000\320<E\000@gE\000\020\022E\000\300\276D\000`\365D\000\340\200D\000\200nD\000 \005E\000\360\026E\000 \245D\000 \212D\000\200\200D\000\300\250D\000`)E\000\300kD\000\200\322D\000\000tD\0000?E\000\000\204D\000\320\021E\000@\314D\000\200\016E\000\300\"D\000\300\034E\000\000DD\000\240\216E\000`\032E\000\000sD\000\200\367D\000\020OE\000\300YD\000@\366D\000\340\243D\000\000\010E\000\270\366E\000\220]E\000\340\334D\000`oE\000\000CD\000@\013E\000\200\236D\000\340\323D\000\000\246D\000@\361D\000P(E\000\240\274D\000\000\245D\000P2E\000\240\214D\000@\364D\000\000\352D\000\240\003E\000\220(E\000\300\307D\000\300^D\000\240\031E\000\200\230D\000@.E\000@[D\000p\013E\000\000\034E\000\340\005E\000`UE\000\000\310D\000\3200E\000p\031E\000\000\241D\000\300\300D\000 \301D\000\020\032E\000 \004E\000 \033E\000\000aE\000`\352D\000\200\333D\000`\206D\000\300\207D\000 \243D\000\200\262D\000@\362D\000`eE\000p\013E\000\320\013E\000p(E\000\020.E\000\000\271D\000\020wE\000@\317D\000@_E\000`\236D\000\000\372D\000`SE\000@1E\000`*E\0000\002E\000 \257D\000\020VE\000\240\277D\000\020(E\000`kE\000\000\251D\000\000\200D\000@\257D\000\200\262D\000\220\200E\000\360\036E\000 \315D\000@\241D\000\240aE\000`#E\000 \361D\000@\333D\000\200\014E\000PWE\000\240\301D\000\300JD\000@\365D\000\300\224D\000\200\314D\000\300aD\000\000\303D\000\320\007E\000\350\241E\000@\316D\000\000\223D\000PEE\000\240\005E\000\000zD\000\000fD\000`\331D\000\340\345D\000\300\023E\000\2009E\000\000\204D\000 qE\000`\004E\000\300\243D\000\340RE\000`\300D\000@bE\000\360\024E\000@\260D\000@\211D\000@5E\000`\256D\000\000\221D\000`\004E\000\200\255D\000\200;E\000\000+E\0000~E\000\200dE\000\240\377D\000\360\"E\000\3006D\000\260:E\000`\212D\000\000\246D\000\300\274D\000\360uE\000\000\345D\000\000\026E\000\000\255D\000\000\226D\000\000zD\000@\262D\000@\336D\000@\247D\000\000\314D\000\340\335D\000\340\360D\000\340\037E\000 \357D\000`\223D\000p\030E\000\240\013E\000\000\202D\000\340\337D\000\200hD\000\200\254D\000@\003E\000\360:E\000\000nD\0000+E\000\000\320D\000\000\317D\000\300\207D\000\340\243D\000\020\023E\000`\236D\000\240\347D\000 \354D\000\300\266D\000\340\024E\000\320\030E\0000\033E\000 \363D\000\200YE\000\000\304D\000\000\360D\000@\376D\000\200\\D\000\320ME\000@\347D\000\000\320D\000@\276D\000@\031E\000\000\237D\000\300\307D\000P\020E\000\200\312D\000\200\211D\000\260NE\000 \371D\000\300\216D\000\320\rE\000`\275D\000`\243D\000 \346D\000\300\tE\000\240\250D\000\000\010E\000 \200E\000\240\330D\000P\003E\000@\253D\000@ND\000 \031E\000\200\374D\000\340\352D\000\000\322D\000\000\tD\000\200\202D\000\000\303D\000@ E\000\200$D\000\340\276D\000\300\207D\000\000\247D\000\000ZD\000\000\340D\000\000cD\000\200\225D\000\320,E\0000\004F\000\200\032E\000\200\230D\000\240\211D\000\000\266D\000\200\273D\000@\203E\000\3009E\000\200OD\000\200\303D\000\000\274D\000@\215E\000\020\tE\000\000wD\000P\026E\000\340\202D\000\0006E\000\000\316D\000@\336D\000\000\304D\000\000\033E\000@\373D\000\2404E\000\220\001E\000\260$E\000\300\nE\000\240\334D\000\000\216D\000 \023E\000\340\017E\000\000oD\000@\243D\000 -E\000@\313D\000P\005E\000 )E\000\020\003E\000`\333D\000\200\261D\000\340\367D\000@\250D\000\300\215D\000\000\026D\0000\005E\000\240hE\000\300\262D\000`\270D\000\000\245D\000\360\207E\000@[D\000\240\275D\000\000\313D\000\300\207D\000\200\217D\000\300\007E\000\000}D\000P$E\000\240\320D\000 \343D\000\240\254D\000\200\307D\000\220\"E\000\200\355D\000@\232D\000p%E\000 \322D\000 2E\000 \236D\000\340\344D\000`\274D\000@\233D\000\3002E\000`\343D\000\3602E\000`\'E\000p\237E\0000\004E\000\200\177D\000\360KE\000`\227D\000\000\361D\000\240\370D\000 \316D\000p\016E\000\200\033D\000\000\207D\0008\222E\000\270\214E\000\000?D\000\200\306D\000\300\276E\000\300\001E\000\000\277D\000\200\"E\000\000\032E\000\340\231D\000\000\237D\000@\rE\000\300\240D\000@\035E\000\000\202D\000\220\023E\000 \217D\000\000\306D\000\000\370D\000\000\240D\000@\265D\000\000\013E\000\000wD\000\360qE\000\200\320D\000pUE\000`;E\000\300LE\000\340\017E\000 \350D\000@\007E\000p\000E\000\300\261D\000\240\263D\000\260\032E\000@lE\000 \344D\000\010\221E\000@:E\000 )E\000\240\271D\000\200;E\000 \356D\000\240\334D\000@\244D\000\000 E\000\200\022E\000\200\000E\000PgE\000\240\370D\000PCE\000\200\344D\000@bD\000\020\016E\000\200\210D\000@\373D\000\200\303D\000\200\205D\000\000\261D\000\200}D\000\000CD\000\340\375D\000 \345D\000\330\201E\000\0004D\000\240\334D\000\200\"E\000\000\346D\000\300\217D\000\300\322D\000\000\021E\000@_D\000\000yD\000\000\305D\000\220\rE\000@aE\000 \316D\000\200sE\000\200\tE\000\200,D\000\300\271D\000`\310D\000\220\014E\000\000\314D\000\200;E\000\200wE\000\370\210E\000\3009D\000@\235D\000\240\361D\000\200\212D\000\200TE\000 \303D\000\200\235D\000\200\362D\000\200\311D\000P\002E\000P7E\000\240\205D\000\2005E\000@1E\000\300ID\000\300\277D\000\300\217D\000@\314D\000\200\036E\000\200hD\000\340SE\000\000]D\000`\316D\000\240\002E\000\240\345D\000\360OE\000@;D\000`\355D\000@\372D\000\240\325D\000\000\236D\000\200\320D\000\300\255D\000\000\231D\000\000\220D\000\360\"E\000\240+E\000\300\206D\000@\270D\000\0002E\000@\221D\000\000\213D\000\360\020E\000\000\231D\000`\316D\000\020\202E\000\240\016E\000@\203E\000\300\251D\000`\233D\000\200\324D\000\200\325D\000@MD\000`\320D\000\300\363D\000\000\360C\000\000\314D\000@\221D\000\340\242D\000`\206D\000\200dD\000\200\274D\000\244\024F\000\000\023E\000\300AE\000\200/E\000\220hE\000\000\215D\000\200OD\000@\022E\000\340\246D\000\200,E\000\340\210D\000\240\205D\000\240\250D\000\000aD\000\000\226D\000\330\347E\000\200\"D\000@\345D\000PhE\000\000\357D\000  E\000\000\330D\000\000/E\000\200\276D\000\200\276D\000`\223D\000\340\211D\000\200sD\000\000\327D\000\240\270D\000\340\303D\000\300\375D\000\220\tE\000\300\337D\000\340\261D\000\200\324D\000\360zE\000\300\204D\000\340.E\000@\022E\000 (E\000\200\205D\000P\025E\000p[E\000\300lE\000\240\344D\000\000\254D\000@\241D\000\360\027E\000`\305D\000\000\314D\000\2000D\000\000`D\000\360\020E\000\000zE\000\300\327D\000`\006E\000\000\257D\000\240\357D\000\200.D\000\200\314D\000\000\\E\000\320\000E\000\200\213D\000@\302D\000@\234D\000\300\035E\000\340\267D\000\240\203D\000\360;E\000\200\374D\000@iD\000@\026E\000\200lD\000\000\003E\000`\334D\000`1E\000@\233D\000\200lD\000\340(E\000\200\'D\000\200\373D\000@\003E\000\200\206D\000\320\031E\000\340\262D\000\200.D\000\220!E\000\340\316D\000\220\016E\000`\007E\0000\tE\000\000\242D\00002E\000@HD\000\200\313D\000\200\235D\000 \321D\000@\014E\000\250\242E\000`\270D\000\300\224D\000\000\360D\000\200\004E\000\300\022E\000\240\335D\000X\225E\000\200\210D\000\260eE\000\340\332D\000\300\257D\000\340\227D\000\300\243D\000\000\016E\000\200\272D\000@\325D\000\340\232D\000@\373D\000\020\033E\000p\301E\000\260\010E\000\000\367D\000`\001E\000\240\230D\000\000zD\000 \244D\000\200\311D\000\360\026E\000\340\300D\000\300\214D\000\300\340D\000\300\032E\000\340KE\000\340\221D\000`\220D\000`\361D\000\200\360D\000\000|D\000 6E\000\240GE\000(\247E\000`\236D\000\300\237D\000\000\241D\000\000,D\000\300\270E\000\240\342D\000\000\276D\000\340:E\000P\032E\000\360\020E\000\000\266D\000\200\360D\000p\216E\000\300\325D\000@\265D\000`\261D\000X\260E\000\300\217D\000\300\013E\000\300\201D\000 \215D\000 \243D\000\010\222E\000\000\226D\000`\360D\000 \260D\000`\272D\000\200\254D\000\340\347D\000`\337D\000\000\264D\000@\223D\000p\023E\000\000HD\000\360hE\000@gE\000\200\377D\000\200\341D\000\240\261D\000\340\326D\000\260\026E\000`\006E\000\240\223D\000H\252E\000p5E\000 \240D\000\000\000E\000\300\330D\000\000\177D\000`\234D\000@\325D\000@\003E\000\200\215D\000\000=E\000\200\226D\000\000\257D\000@*E\000\340\305D\000\000>E\000\300\217D\000 \322D\000@\355D\000\300\215D\000\300\320D\000\300aD\000\2204E\000@-E\0000\004E\000\300\236D\000@\243D\000\300aD\000\200dD\000@\244D\000\200XD\000\340\213D\000\300\217E\000\020\023E\000\000/D\000\000\344D\000\320\000E\000\300!E\000\360<E\000\340$E\000\000\240D\000\340\246D\000\200\260D\000\200\300D\000 \002E\000\000\264D\000\300\375D\000@\227E\000`\347D\000@\372D\000\200\216D\000`\301D\000\000\247D\000\020\025E\000\000\324D\000\320$E\000\240\254D\000p%E\000\200\242D\000\3606E\000\300\314D\000\000\007E\000 \304D\000\000WD\000 \372D\000\340\022E\000\300\364D\000\240BE\000\000\271D\000 \332D\000\200\321D\000\000\257D\000\260\031E\000@\017E\000\200\313D\000\240\200D\000\000\177D\000\200\223D\000@\340D\000@\363D\0000cE\000\000\322D\000\000\265D\000\300\365D\000\220 E\000\0005D\000\200\206D\000\340\237D\000\330\225E\000\300\020E\000\000\226D\000\000HE\000\240\252D\000P\024E\000@\\E\000p\243E\000\200;E\000\300\212D\000`\237E\000\200mD\000 \246D\000\030\204E\000\340\212D\000`\335D\000\000\262D\000\000[D\000`\214D\000\200\026E\000`\206E\000\000\262D\000`\006E\000\200\324D\000@\375D\000\200\001E\000\300\250D\000\200\353D\000\3202E\000\200\303D\000\000\016E\000\340\211D\000@HD\000\240\220D\000\370\272E\000\000vE\000 \026E\000\300\017E\000\340\275D\000\300UE\000X\341E\000\000RD\000\000\016E\000\300\241D\000\300\360D\000\200\357D\000@vD\000@\027E\000\240\355D\000\000\007D\000\200\036E\000\200\366D\000\200zD\000@\033E\000\000\240D\000\300\004E\000`\207D\00009E\000\300\236D\000@\316D\000@\304D\000\300ED\000PvE\000\000\245D\000\240\363D\000\200\"E\000\030\253E\000\240\355D\000\000BD\000\000\311D\000\000aD\000P`E\000\2203E\000\260\037E\000 \230D\000 \377D\000\000\013E\000`\002E\000 \232D\000`.E\000P$E\000\300\375D\000 KE\000\300\216E\000\200\001E\000@\326D\000@\032E\000\240\211D\000\200@D\000\200\314D\0000\023E\000\300\024E\000\200\302D\000\000\357D\000\300dD\000\340\265D\000\000\002E\000\300\330D\000\340\024E\000@HE\000\200\365D\000\200\355D\000 \022E\000`\352D\000@\345D\000\340\242D\000\2206E\000\240\322D\000@\250D\000\000\257D\000\300%E\000(\210E\000`\234D\000\200\211D\000\000\214D\000`\200D\000@\201D\000@{D\000\340\'E\000 \321D\000`\375D\000\240\022E\000\200\272D\000\240\315D\000\000\240D\000@1D\000\000aD\000\320:E\000\000\252D\000\000\222D\000\340\310D\000\000xD\000\3409E\000\240\255D\000 \341D\000\340\311D\000\200]D\000@\036E\000 \370D\000\020\220E\000\200\274D\000p\016E\000`\270D\000\200\025E\000\340\tE\000\300\200D\0000\000E\000\240\215D\000\320\233E\000\360>E\000\000\204D\000\3000D\000\000\310D\000\200\301D\000\300\215D\000@\347D\000\000pD\000\240\356D\000\200\250D\000\200;E\000`\271D\000@\366D\000\200\211D\000\300\224D\000\000ND\000\200\'E\000`\325D\000@\260D\000\300\261D\000@\312D\000\240\000E\000\340\250D\000P\016E\000\000\221D\000\200#E\000\240\323D\000@\003E\000\020GF\000\200\223D\000\2403E\000\220{E\000\200\332D\000\240\225D\000p\036E\0000;E\000\340,E\000`\356D\000\340\216E\000\340\nE\000\340\304D\000\240\355D\0000\rE\000@CD\000@6E\000\240\221D\000\240\273D\000\340\036E\000\000zD\000\240\212D\000\300\205E\000`\253D\000@\265D\000\000VE\000\300\220D\000\300aD\000@\362D\000@wD\000`\010E\000\000\343D\000\200\257D\000@\305D\000 UE\000@\347D\000\320TE\000\000\314D\000\200\370D\000\000\365D\000 \252D\000 \356D\000\000\372D\000\220\026E\000P&E\000\200-D\000\340[E\000\340\027E\000\020:E\000\200\343D\000\0005E\000\240\277D\000\300\215D\000\020\004E\000\300lD\000pYE\000\320\017E\000\300dD\000\200cD\000\240\014E\000\020:E\000\3004D\000\300\\D\000\200$E\000\340\017E\000\000\310D\000\220EE\000\300\rE\000\200GD\000\000\372D\000\200vD\000\300gD\000\000\214D\000\200(D\000\200\324D\000 \332D\000\000pD\000\200\276D\000\000\nE\000\220/E\000@\270D\000\000`D\000\220KE\000@\207D\000\240\340D\000\240\221D\000\000\006E\000\200\310D\000\000\220D\000 \322D\000 \232D\000@\233D\000\300\362D\000@\220D\000@bE\000\340\313D\000@\265D\000\000\244D\000\000\230D\000 \365D\000\240\276D\000\240YE\000\200cD\000\340\326D\000\000\250D\000 \373D\000\000\342D\000\320(E\000\200+E\000\000ZD\000 \376D\000`\341D\000 \257D\000\020$E\000`\316D\000\200\320D\000@\244D\000\200\006E\000\200\234D\000\240\276D\000`\001E\000\340+E\000\000\225D\000\300\302D\000\200\250D\000\200\225D\000\000\301D\0000\tE\000P\035E\000\000\177D\000\300\277D\000@\314D\000\240\250D\000\240\213D\000\020\nE\000\300\370D\000\2407E\000\020\030E\000p\024E\000X\230E\000\300\315D\000`\017E\000\000\225D\000 \036E\000\000tD\000\200\211D\000\240\037E\000\000\222D\000@\213D\000@YD\000\340\357D\000\200PD\000 \320D\000\360\203E\000\300\337D\000\300\300D\000\200\355D\000\240\231D\000\300\262D\000\000/D\000\000bD\000\2401E\000\300\371D\000\200\360D\000\300\251D\000\300\210D\000 \025E\000P/E\000 \000E\000@\246D\000\300\200D\000\300FE\000`\340D\000\300FD\000\230\204E\000\200nE\000\200\177D\000@\304D\000\300\203D\000\260KE\000\340\317D\000\200\242D\000\340\301D\000\200\346D\000 \221D"
      }
    }
  }
}
node {
  name: "Const_3"
  op: "Const"
  attr {
    key: "_output_shapes"
    value {
      list {
        shape {
          dim {
            size: 2508
          }
          dim {
            size: 1
          }
        }
      }
    }
  }
  attr {
    key: "dtype"
    value {
      type: DT_FLOAT
    }
  }
  attr {
    key: "value"
    value {
      tensor {
        dtype: DT_FLOAT
        tensor_shape {
          dim {
            size: 2508
          }
          dim {
            size: 1
          }
        }
